#version: 0.2
Ġ t
Ġ a
h e
i n
r e
Ġt he
o n
e r
Ġ o
a t
Ġ s
e n
Ġ c
Ġ w
e s
i s
n d
i t
o r
Ġ p
a l
Ġ b
e d
Ġo f
a n
Ġ f
in g
Ġ in
o u
a r
Ġ m
Ġa nd
Ġt o
i c
Ġ d
i on
l e
r o
a s
Ġ h
en t
Ġt h
c t
Ġ e
i l
Ġ re
o m
v e
Ġ l
s t
Ġ n
l y
Ġb e
â Ģ
Ġ is
Ġ T
s e
o l
Ġ g
at ion
i m
i d
e t
u t
c e
o t
u r
c h
r a
o w
Ġ A
Ġf or
i g
Ġ S
Ġ u
Ġth at
Ġ on
Ġs t
v er
Ġ C
Ġ y
Ġ I
i r
u l
a y
a m
Ġa s
it h
e l
a d
Ġp ro
he r
Ġa re
Ġc on
Ġa n
Ġw ith
i f
Ġw h
Ġy ou
Ġo r
Ġ it
Ġa l
t er
o d
Ġ M
Ġ (
ĠT he
m ent
g e
Ġ 1
Ġ P
t h
o p
at e
is t
er s
Ġd e
i es
a b
il l
Ġ he
es s
Ġ B
Ġe x
u s
Ġw e
o re
e ct
Ġc om
Ġs u
âĢ Ļ
it y
es t
re s
a c
Ġh a
i ve
Ġ H
u m
ro m
l d
o s
Ġ v
k e
Ġb y
an t
e m
q u
i v
Ġ W
a in
n t
Ġa t
p p
ig h
Ġ D
Ġw as
u d
Ġc an
Ġ E
Ġf rom
a nd
Ġc h
o c
Ġ r
Ġ R
or t
Ġn e
Ġ F
Ġs e
i al
Ġ 2
u re
Ġn ot
u n
Ġ âĢ
Ġ le
ic al
ar t
Ġ N
Ġ G
Ġha ve
r i
Ġ L
o g
Ġs h
Ġ en
Ġs p
Ġth is
p t
igh t
Ġa b
al l
r ou
ic h
re d
Ġw or
0 0
ou ld
t her
o st
T he
ion s
ou r
g h
om e
d u
at ed
Ġ im
in e
Ġu s
p er
Ġp l
ar d
ou t
a g
Ġthe ir
el l
id e
f f
a ct
Ġ O
Ġin t
p l
e ar
an s
as t
a ge
a k
u st
Ġwh ich
Ġ J
e c
Ġ k
Ġw he
Ġyou r
Ġthe y
ou s
i z
Ġ U
o od
Ġal l
Ġa d
ul t
i b
ĠI n
Ġcon t
Ġw ill
Ġin c
en d
c c
Ġd is
r u
a p
Ġm ore
Ġcom p
on g
Ġre s
âĢ Ŀ
i a
e w
i p
ve l
ation s
Ġh as
e re
s o
or m
Ġd o
ar y
at er
ĠT h
ab le
en ce
a re
il d
Ġm an
Ġo ther
Ġc l
u al
Ġb ut
k s
Ġwe re
r y
in d
e p
Ġp er
ent s
Ġt e
Ġm e
Ġim p
ĠâĢ ľ
a ch
Ġal so
Ġon e
an ce
' s
o se
re at
ig n
a ke
Ġ1 9
res s
as s
as e
a v
a u
Ġs o
ct ion
Ġ j
it ion
Ġo ut
ic e
Ġu n
b er
Ġa r
Ġa pp
on e
ver y
im e
Ġp art
Ġab out
or d
Ġst ud
en s
a ce
Ġe v
ou nt
is h
or y
ĠS t
o k
ac k
am e
i re
Ġwh o
) .
Ġin f
Ġp e
Ġh is
Ġs y
Ġcom m
Ġs c
or s
u b
it e
u e
Ġthe m
an g
c es
Ġ K
i ke
ou nd
re e
ol og
n ow
Ġ "
Ġp re
l ow
Ġbe c
ĠI t
Ġu p
r ic
Ġm ay
Ġth an
i e
i le
if f
Ġ qu
op le
Ġy ear
Ġs ome
Ġre c
ay s
ĠC h
at es
a il
Ġbe en
Ġwhe n
nd er
ing s
Ġthe re
i an
m er
Ġit s
ou gh
Ġa g
re n
Ġint o
Ġg o
Ġt ime
Ġt ra
p h
ver s
Ġwor k
r it
er v
ĠTh is
t e
Ġ2 0
Ġthe se
on s
Ġo ver
Ġ V
Ġpe ople
Ġd iff
al ly
l ud
rou gh
Ġh ow
au se
Ġcon s
Ġu se
Ġ ro
on d
Ġh ad
Ġc ol
Ġ ra
ter n
m s
l l
Ġ 3
if ic
Ġt r
o ve
Ġo ur
Ġa ct
Ġbe t
w e
Ġm ost
in t
ir st
y s
al th
it ies
Ġk now
Ġl ike
Ġu nder
l ic
Ġb l
ment s
j ect
Ġw ould
le ct
Ġ Y
i ous
Ġd es
Ġa cc
ro w
n ing
o ok
Ġs a
l es
vel op
Ġne w
st em
Ġt w
Ġsu ch
Ġne ed
Ġre l
ff ect
Ġ if
Ġre p
i ent
ation al
Ġg en
Ġinc lud
Ġan y
Ġch ild
Ġhe l
o b
c ess
he d
p le
at ive
ul ar
Ġus ed
Ġp r
c ed
Ġwh at
Ġon ly
Ġhel p
y p
Ġpro du
o ol
Ġp h
at ing
Ġn o
Ġpro v
o v
Ġman y
Ġin d
Ġa m
Ġde velop
ĠU n
Ġf irst
Ġof f
) ,
Ġsp ec
Ġth rough
Ġf e
f ter
at h
os s
is e
rou nd
Ġa c
ar k
u c
ic s
Ġex p
Ġre g
i et
Ġp o
ur ing
Ġe m
n e
f ul
t s
Ġtw o
er m
Ġsy stem
ri b
is s
ot h
in k
Ġdiff ere
i ed
Ġo b
et h
he n
ro p
ol d
Ġde c
al s
il ity
Ġas s
ib le
as ed
Ġat t
an ge
Ġad d
Ġs ur
t en
Ġ -
Ġsh ould
ĠH e
u res
ĠâĢ ĵ
ar ch
ow er
if e
f ore
I n
Ġw ell
er t
Ġf l
b le
we en
n g
Ġw ater
Ġsu pp
ra ct
ra m
Ġyear s
Ġre m
Ġ20 1
a w
Ġsu b
ow n
Ġin v
Ġc o
ad e
Ġ2 00
se l
Ġ 4
g an
ut ion
Ġbet ween
Ġhe alth
Ġs m
c y
Ġc ould
he s
Ġp res
Ġh igh
it s
ic k
Ġwhe re
e ver
u ch
Ġtr ans
w n
il y
Ġ 5
Ġm ake
x t
ant s
ch ool
olog y
Ġg et
Ġb u
ĠA s
i ence
ch n
Ġre se
Ġimp ort
id ent
Ġe ar
ur al
it ed
f orm
Ġp ers
Ġfor m
l and
Ġin ter
mer ic
Ġm od
Ġ her
Ġin st
Ġn um
i vers
t ing
Ġp ol
in es
in s
Ġdis c
Ġex am
on t
ist s
ic t
Ġf ound
f t
Ġbec ause
ual ly
Ġdiffere nt
Ġle ar
h at
n ess
Ġl ong
Ġs im
Ġa fter
Ġe ffect
Ġl ar
at a
Ġc ar
g y
Ġex per
Ġthe n
e f
Ġ very
Ġev en
Ġwor ld
ce pt
is m
Ġc ent
Ġinc re
Ġj ust
Ġc ount
Ġm ed
Ġinf orm
Ġw ay
o y
at ure
ur n
Ġd et
Ġ ed
Ġt yp
g et
ĠA meric
Ġ1 8
ot her
Ġh um
ak ing
Ġres p
v ent
ical ly
Ġs ign
Ġse e
Ġgen er
Ġth ose
Ġv ar
iv es
Ġre f
ol low
Ġ ke
i ew
Ġpro g
Ġex t
Ġp at
Ġc all
Ġp ub
c er
om m
Ġres ult
c k
ar m
Ġe very
ro s
Ġchild ren
p s
as es
Ġe ach
Ġbe ing
Ġpro cess
Ġf act
u es
Ġl oc
d s
Ġsa id
l ed
. .
Ġse c
Ġc a
Ġg ra
ir on
Ġs oc
or k
Ġre qu
ru ct
t le
ag es
Ġpart ic
. âĢĿ
Ġimport ant
T h
Ġte chn
od y
Ġs et
ĠA l
Ġd ist
i o
Ġm uch
Ġl ife
Ġm on
ĠW e
Ġar t
Ġcomm un
at her
Ġde p
c ent
v ed
Ġc re
Ġde f
Ġ ent
Ġd uring
Ġs he
ver n
Ġm y
iz ed
Ġf am
Ġinform ation
Ġstud ents
im es
Ġo wn
w ard
Ġf ollow
Ġf ood
Ġre ad
ĠP ro
Ġr ight
ĠThe y
Ġle vel
Ġm ade
ic es
Ġs k
Ġle ad
ĠR e
Ġs ame
Ġa ut
Ġdo es
an y
g g
Ġstud y
Ġ 6
iz e
Ġpro ble
Ġf ind
t he
ect ion
Ġg row
Ġs chool
Ġa v
Ġd ata
h ip
Ġg ood
t ed
ĠI f
Ġc ur
Ġpers on
al e
Ġen d
Ġm in
Ġb ack
Ġb oth
on om
Ġin s
Ġst r
ĠA n
Ġp op
Ġd i
u nd
v iron
Ġc he
ĠF or
. ,
Ġus ing
Ġg rou
ĠA r
Ġbe fore
Ġcomp le
Ġsm all
1 9
al ity
Ġsh ow
Ġex pl
Ġh ist
re ad
ivers ity
i el
Ġt est
ial ly
Ġc or
Ġg l
st and
in ce
| |
Ġb o
ĠH ow
in ed
Ġag ain
ar s
Ġm ain
Ġt reat
in al
iv id
om en
Ġof ten
oc k
e x
Ġv al
Ġl ess
Ġpro t
00 0
2 0
n ce
im ate
d er
Ġb r
er gy
ĠI nd
ro l
i x
t y
Ġp oss
is hed
Ġs ol
Ġwh ile
ĠN ew
Ġt ake
Ġdis e
Ġd ay
Ġst ate
ut e
ĠS p
Ġo cc
a x
i en
Ġn ow
Ġl it
Ġnum ber
Ġs erv
ak es
Ġe c
o h
ĠS c
Ġr is
r al
viron ment
Ġrese arch
Ġm em
Ġp ower
Ġh im
Ġc ell
ul ation
i er
Ġor gan
Ġv is
ire ct
Ġ1 0
Ġb ody
Ġprov id
d ition
Ġact iv
ur y
Ġf un
u p
Ġdes ign
a ir
e red
Ġhum an
Ġch ar
iv ing
i qu
iet y
Ġa round
Ġd own
Ġha nd
Ġbe l
Ġm ust
Ġsupp ort
Ġth ree
v es
Ġcl ass
a h
ter s
Ġre du
her s
i um
Ġcomm on
Ġ est
v en
g er
Ġl ook
a j
a ve
us s
Ġpl an
Ġcon f
Ġst art
Ġ 7
Ġpo int
re nt
Ġg reat
d ay
it al
Ġc le
Ġl and
âĢ Ķ
Ġd id
Ġe lect
Ġlar ge
ĠB ut
Ġgo vern
ain s
c l
Th is
Ġs er
v ing
Ġrep ort
act er
Ġexam ple
sel f
g en
ros s
ou se
or n
ra in
Ġcont in
e e
Ġc are
r on
ul l
c om
ĠI s
Ġ 8
Ġo p
it ions
ion al
Ġinclud ing
Ġall ow
ĠY ou
a red
, âĢĿ
as h
Ġcon st
Ġth ough
an c
ĠThe re
Ġre t
Ġad v
Ġcall ed
i ver
Ġm et
Ġw rit
w ay
Ġbu ild
Ġed uc
Ġc our
Ġe qu
e g
Ġunder stand
ater ial
Ġd r
Ġknow n
ou th
Ġs om
es p
iv en
Ġpub lic
Ġst ill
n er
. "
1 0
Ġbe h
in c
ĠA nd
i red
Ġp ract
el s
os ed
i od
Ġe as
re en
Ġ 9
âĢ ĵ
oc i
r ies
ivid ual
om s
Ġth ink
id s
Ġg u
ĠâĢ ĺ
Ġapp ro
Ġpl ace
Ġqu est
Ġ ide
ect ed
ere st
d e
Ġm ight
Ġm at
ent ial
Ġf ew
Ġ19 9
our ces
iz ation
l ish
it ive
in ation
an k
ĠThe se
Ġst and
b ers
Ġpres ent
Ġch ang
Ġca us
ĠW h
er ing
ra ph
Ġt em
Ġen ergy
Ġen vironment
âĢ ľ
Ġch ange
Ġw ant
pt ion
Ġwith out
Ġde m
Ġp ur
en g
Ġwith in
Ġprodu ct
ou n
t t
en se
r ation
m e
ord ing
ĠE ng
i or
Ġdevelop ment
ang u
Ġis s
iv ed
ff ic
Ġl ight
as on
Ġm aterial
Ġph ys
ert ain
Ġsy m
ĠD e
eth od
ĠUn iversity
Ġind ividual
Ġa ir
Ġpro ject
ag n
Ġlear n
m an
Ġc ap
Ġimp ro
l ess
Ġ ident
er al
are nt
Ġdise ase
l ine
ĠAmeric an
Ġim m
Ġd irect
Ġd on
et s
t on
al k
Ġpl ay
Ġs l
Ġb re
Ġpro f
b s
i ans
Ġare a
Ġp ot
Ġb en
or th
Ġs it
Ġan other
Ġp os
Ġ ve
in ess
ill ion
Ġp ass
ent al
Ġme as
Ġbl ood
olog ical
aj or
iel d
ab ility
Ġw omen
Ġbel ie
Ġen g
if ied
ĠC on
Ġinclud e
Ġl aw
Ġ &
Ġb est
p r
Ġh ome
Ġsoc ial
u g
Ġan t
' t
at ural
Ġint erest
ain ed
Ġe t
er c
Ġm us
ro du
I t
Ġb as
Ġc ult
cc ess
Ġris k
Ġdes c
if y
Ġre st
Ġp ain
ent ly
Ġse ver
ĠA d
Ġan al
Ġcont rol
at ic
Ġm ark
Ġprog ram
a z
Ġo pp
Ġo ld
Ġbec ome
at s
our ce
h or
Ġear ly
Ġl ow
ĠP h
Ġpro per
Ġec onom
Ġbet ter
g in
ĠHow ever
Ġle g
Ġm ethod
Ġan im
he re
w ays
i k
is ion
Ġhe re
Ġgovern ment
Ġm il
l ished
Ġw ar
er n
in ing
Ġagain st
ar c
Ġm ove
Ġl ast
ĠS h
Ġp ar
Ġf ore
t o
r ist
Ġsec ond
st r
ill s
Ġre al
Ġt re
w are
Ġke ep
Ġto o
Ġo per
Ġor der
e ed
e ad
iss ion
Ġav ail
Ġc ause
Ġocc ur
Ġprov ide
id er
Ġm ajor
i ents
am p
ard s
Ġt er
l u
Ġme ans
Ġgrou p
or ies
ĠUn ited
ic le
Ġe le
Ġhist ory
ent ion
v iew
ra p
ĠR es
Ġpartic ular
Ġposs ible
Ġfam ily
Ġspec ies
Ġsever al
ĠC l
Ġto p
Ġin du
Ġper form
Ġde v
Ġcur rent
pl es
Ġu nt
u se
og raph
Ġper cent
Ġadd ition
Ġs ay
Ġl angu
Ġper iod
Ġne ar
Ġinv ol
ot e
Ġ1 5
is ed
p ar
ĠE x
Ġ [
Ġh ig
Ġor ig
o id
Ġf in
Ġlear ning
ĠC ol
Ġab le
in a
Ġm en
ĠâĢ Ķ
Ġme an
s y
p ect
ĠW hen
Ġsa f
Ġsc ient
ir c
Ġha pp
ĠG od
og n
Ġ .
Ġben ef
Ġn on
ĠP l
Ġop en
Ġs ince
Ġb us
Ġl im
u rop
Ġpro m
id ence
Ġc r
Ġth ings
Ġa ffect
Ġc ost
Ġe l
Ġare as
Ġsign ific
Ġc al
Ġpl ant
ĠC an
b r
ĠT o
at or
Ġam ong
os p
th ough
re t
an e
o f
o le
, "
Ġfe el
ĠSt ates
il ar
Ġother s
Ġm ar
Ġs ays
ĠS e
end ed
p ort
Ġavail able
Ġcount ry
W hat
w w
Ġtreat ment
Ġn ame
Ġ Z
ĠC omm
Ġb ased
Ġ Q
am es
Ġfollow ing
om p
ot s
end s
Ġf our
s c
Ġf re
l ing
Ġhe ad
ab ly
Ġt imes
Ġc ase
Ġpre vent
Ġd el
Ġf ac
oc us
Ġcon d
ur ther
an ces
Ġwe e
Ġmon th
Ġacc ess
el f
c ing
un e
ĠA t
Ġcom e
Ġc ertain
Ġa ge
Ġob ject
Ġf ree
Ġ1 7
Ġp ost
pl oy
Ġl ist
Ġv iew
Ġl ab
urop e
o int
Ġproble m
Ġp ress
Ġst ruct
Ġb i
Ġre ce
ol ution
Ġn atural
Ġl o
Ġloc al
Ġtyp e
ress ion
Ġr un
b e
h y
Ġsu ccess
Ġcon n
a per
W e
Ġproble ms
Ġp ut
op e
Ġb ro
Ġv ol
Ġ1 2
on es
ĠE n
Ġg r
Ġlit tle
Ġc reat
Ġin tern
ic ult
ĠC ent
res ent
Ġh ard
Ġlevel s
Ġb ir
I f
st it
Ġcell s
Ġam ount
ĠN ational
A s
1 2
gg est
Ġass oci
Ġb ook
1 8
Ġyou ng
w ork
it her
Ġunt il
Ġf ar
p or
Ġl ater
at ory
eth ing
ĠT e
Ġsignific ant
Ġf low
Ġm ult
ĠA f
ĠE urope
o ks
Ġle t
Ġg iven
ate ly
Ġimp act
Ġ ess
id es
led ge
Ġt urn
ĠCh rist
Ġm aking
Ġs w
Ġd ue
g ed
ure d
ĠF r
n ot
ut ure
ort un
Ġra d
Ġsh ort
Ġv ir
Ġcomp ut
Ġdet erm
Ġhe art
Ġsu ggest
he m
Ġf ocus
Ġse em
ĠB e
ap s
ak en
Ġch o
Ġbeh av
ic ation
ĠO r
Ġ 0
Ġfun ction
o ver
c le
Ġeduc ation
Ġlike ly
Ġd ays
Ġh y
f ace
Ġinv est
Ġf il
Ġob s
Ġsystem s
Ġal ong
Ġpol it
ĠA ll
Ġcom b
ĠU S
Ġapp ear
age ment
ĠW hat
ĠO n
Ġc irc
Ġcommun ity
Ġlangu age
Ġincre ase
Ġus ually
Ġsom ething
or ld
Ġd ra
Ġcour se
oh n
end ing
is c
Ġ1 6
Ġs ing
ri ed
Ġte ac
Ġal ways
v ious
Ġde ath
Ġresult s
as ter
Ġaut hor
Ġp ast
ec ially
Ġre le
r ing
Ġdiff icult
ap e
Ġtechn ology
Ġcle ar
Ġex ist
Ġcons um
Ġspec ific
Ġ $
ĠM ed
an n
Ġsim ilar
et ic
at ors
a f
Ġtem per
Ġpop ulation
Ġwor ds
Ġp arent
Ġen c
_ _
5 0
Ġcre ate
Ġg ive
1 1
em ber
Ġsp ace
Ġb rain
Ġto day
Ġexper ience
Ġm illion
Ġrec ord
as ing
Ġ ill
m in
l er
Ġchar acter
pt oms
Ġcent ury
Ġcond itions
The re
Ġ '
Ġneed s
Ġdesc rib
Ġe y
id d
Ġcan cer
Ġspec ial
Ġab ove
our s
ĠS o
m it
esp ecially
ive ly
ru ction
Ġl ine
ru g
i ation
Ġd am
a pp
Ġwh y
ain ing
H ow
Ġdisc uss
Ġbe gin
ore d
o x
Ġf uture
Ġne xt
Ġne cess
Ġc rit
Ġchang es
Ġ er
Ġhow ever
Ġhig her
ob al
Ġpro p
rib ut
ĠB rit
ĠAf ric
Ġapp lic
Ġle ast
Ġvar ious
Ġcount ries
Ġest ab
Ġprof ess
Ġg re
Ġto get
Ġtoget her
m ost
ort s
Ġs ide
Ġm ov
Ġt ry
Ġstr ong
Ġwor ks
ĠE ar
iqu e
Ġas k
il ities
Ġac ross
S t
Ġrequ ire
is on
ĠB l
Ġne ver
ra y
Ġle ft
sel ves
Ġresp ons
Ġcomple te
n al
Ġbus iness
one y
av es
od e
Ġk ind
at ch
b y
Ġimpro ve
ate g
Ġpl ants
Ġwork ing
Ġen ough
Ġcol le
Ġa way
Ġeffect s
om es
ĠS y
Ġm ot
Ġw ays
s p
Ġrese arc
Ġc y
am m
Ġ especially
Ġto ol
Ġs ens
s w
Ġpat ients
il t
Ġt erm
Ġpl ac
Ġt ru
Ġgener al
f or
Ġpr im
al f
al es
ac y
Ġf ull
ys is
le t
Ġ19 8
Ġche m
Ġstud ies
ĠL e
th ing
Ġn et
ar ing
ĠG erm
o ot
Ġc ases
Ġha ving
u ment
ac c
Ġsub ject
N A
du ct
om an
ach ing
Ġke y
le ment
ĠW ar
Ġinf lu
Ġbec ame
it ing
Ġcons ider
ĠJ ohn
Ġte am
/ /
i pp
i res
le y
Ġtyp es
a im
s ide
n ed
Ġwhe ther
Ġgo ing
g es
ch ie
Ġn orm
Ġknow ledge
u ed
us h
Ġrel ations
Ġ z
Ġacc ount
Ġrep resent
ist ic
a pt
Ġsym ptoms
A n
Ġst ep
Ġcon cer
ot t
Ġl ower
ĠS ome
en cy
Ġc ity
Ġprot ect
Ġp red
Ġre ason
Ġf urther
Ġg round
Ġm ind
it or
Ġphys ical
.. .
is ing
Ġm akes
Ġsc ience
read y
Ġo pt
ific ation
Ġh ouse
Ġpol ic
un g
er y
ĠG en
ĠEng lish
Ġro le
it es
Ġprodu ction
Ġs elf
F or
2 00
Ġte xt
: //
ĠW orld
3 0
Ġsu m
sy ch
Ġb ig
ab les
ed i
a e
at ures
Ġf und
Ġ3 0
ere nce
Ġquest ion
ir d
Ġr ange
ĠW ith
ic ro
Ġsu re
a ut
b on
Ġl ive
ĠO ne
l o
Ġactiv ity
Ġe ff
Ġind ic
1 5
Ġval ue
ĠG o
Ġch all
m ber
Ġto ward
ib ility
Ġse en
c ul
Ġmod el
ur ch
ver age
Ġgrou ps
Ġd ig
re am
Ġactiv ities
Ġw r
et imes
re l
ĠIn tern
Ġpartic ip
1 6
Ġn ut
Ġal ready
i ol
ĠHe alth
Ġl oss
Ġen s
Ġre ally
es c
Ġgrow th
Ġw ind
au gh
Ġd one
Ġf all
Ġres ources
Ġoff ic
ĠTh at
Ġst at
and s
Ġem ploy
Ġ1 4
Ġdevelop ed
ĠC ar
Ġcl ose
Ġr ather
Ġbe low
Ġproduct s
u nt
Ġe ither
Ġart icle
Ġl ot
u ation
os is
Ġqu ality
Ġs ite
ip le
i am
Ġst ory
Ġpot ential
Ġf ield
Ġwor d
ou ra
Ġp aper
il s
ove red
Ġrec ogn
Ġfl u
Ġde g
f act
Ġb at
Ġn ational
Ġa chie
ĠM ar
Ġne g
Ġpro b
Ġ ur
Ġd iet
Ġm ass
Ġacc ording
Ġsing le
Ġph ot
ide red
Ġcl imate
ear ch
Ġtra dition
iv al
ĠA m
ra ms
Ġs ource
ĠG e
Ġd rug
1 7
Ġredu ce
Ġobs erv
Ġab s
ĠC al
Ġev ent
E R
ĠP r
Ġindu st
Ġsur face
Ġbuild ing
p ut
am in
ric t
Ġt aken
Ġr ate
ĠT r
ĠN orth
1 3
1 4
ĠAmeric a
Ġf ive
Ġin it
ĠD r
Ġsk ills
Ġcon cept
Ġre d
ĠI m
ub lic
Ġwh ite
et er
Ġiss ues
iv il
Ġme et
Ġon ce
Ġwho le
Ġmem bers
Ġup on
ĠA b
Ġev idence
Ġf r
ĠS he
Ġto t
Ġmed ical
Ġcons idered
Ġdo ct
v al
Ġcol lect
as k
re ct
ĠS outh
iv ity
W hen
Ġfre qu
Ġf ail
ĠM ay
Ġan n
u le
ffic ient
Ġrec omm
f er
Ġresearc hers
le ep
âĢ ¦
ur ity
Ġadd ress
Ġdet ail
Ġrel ig
Ġs ize
Ġpress ure
re g
re me
Ġcre ated
Ġd om
Ġsu n
ip s
Ġc ut
y m
Ġthem selves
Ġw ide
Ġc ame
or g
Ġret urn
Ġquest ions
ep end
op h
Ġl iving
Ġd est
Ġre pl
Ġs ent
Ġs ound
Ġn ature
ĠSt ud
Ġ =
e b
ro ll
ib r
Ġassoci ated
ill ed
Ġint rodu
our nal
Ġincre ased
Ġt ell
ĠB y
Ġcan not
Ġf ri
Ġh old
ight s
Ġp ay
o ber
Ġs al
Ġsk in
Ġanim als
et y
Ġ ver
Ġ19 7
ut ions
ĠAs s
Ġhist or
Ġpolit ical
Ġmark et
Ġrequ ired
Ġpract ice
l ike
Ġsim ple
Ġst ates
Ġl ay
ĠR ep
Ġad ult
Ġact ually
Ġthough t
y n
it ud
en n
o on
se qu
Ġrel ated
Ġwee k
s h
C h
Ġent ire
Ġneed ed
Ġopp ortun
Ġunderstand ing
Ġst ress
Ġ1 3
Ġbl ack
art ment
Ġeffect ive
Ġab ility
Ġeng ine
Ġmaterial s
Ġpro te
ĠA ust
Ġpur p
Ġf ish
Ġstud ent
. )
Ġpub lished
ic ations
ĠM an
Ġqu ick
Ġcomple x
Ġfam il
Ġh tt
Ġeconom ic
S A
Ġd oc
Ġhealth y
Ġsp e
Ġit self
Ġrelations hip
ol ic
ĠS oc
en ing
Ġgl obal
ĠY ork
Ġpart s
Ġmain t
Ġide a
Ġf at
Ġp ort
Ġal most
Ġar g
en ed
Ġcon dition
p ro
h ib
Ġfe ed
Ġmod ern
- -
Ġ vers
Ġprovid es
ag ing
um p
Ġright s
g ing
Ġan sw
ag ed
ĠEar th
ac ks
A l
Ġcom es
ly ing
Ġd og
Ġo il
os es
a i
er ve
Ġm oney
Ġserv ices
Ġass ess
ve re
ore s
g o
ĠA ct
ra d
m b
u el
Ġm or
h ing
Ġav oid
Ġc at
T o
it ary
ne y
y l
ch an
Ġfact ors
ĠD ep
Ġh alf
Ġmonth s
Ġg as
Ġexper ien
) :
Ġmeas ure
Ġnecess ary
Ġre act
Ġex erc
Ġcol l
g est
Ġman agement
Ġwe ight
b o
ĠSt ate
is es
Ġparent s
Ġg reen
Ġsu per
Ġ X
Ġto ok
Ġprodu ce
Ġsu ff
Ġbe gan
row n
Ġar ch
Ġar r
ens ive
Ġb ar
Ġl ink
ur s
ĠH is
Ġp ath
Ġappro ach
ol l
Ġ1 00
ĠC omp
p ly
ab or
m y
es e
Ġanal ysis
ĠG u
us ion
c ient
en ces
Ġpr iv
Ġc op
Ġs am
Ġso ft
Ġe ver
Ġcol or
ĠJ ew
ĠH ist
Ġy et
b ased
Y ou
Ġcon duct
Ġpr inc
Ġso il
on se
Ġ |
ict ion
W h
ab it
Ġt ar
m a
Ġreg ion
Ġcomput er
ap an
Ġg e
" .
iz ing
ut es
Ġ19 6
um e
idd le
Ġlit er
Ġj ob
ĠN e
Ġse par
Ġpat tern
Ġe mer
Ġthrough out
Ġcl aim
Ġchem ical
Ġpop ular
Ġst op
in ter
em pt
n ces
Ġread ing
ri pt
Ġf arm
ĠC ont
Ġreg ard
z e
ĠD o
es tern
Ġb ur
Ġincre asing
ir m
ĠBrit ish
ĠC o
ed s
Ġt aking
uc k
Ġperson al
Ġa ction
ig ure
Ġr ul
Ġbu ilt
Ġs ense
p id
Ġrec ent
Ġ5 0
Ġf ire
Ġshow s
ic les
er ous
Ġtot al
Ġl a
ĠCan ad
Ġlong er
c hes
ect ions
em ic
Ġcont ent
cc ording
ĠA fter
Ġthe rap
Ġwrit ing
l or
Ġter ms
Ġs ix
Ġpre vious
Ġinter act
Ġenvironment al
E S
Ġschool s
Ġindividual s
Ġindust ry
Ġh ours
Ġstruct ure
Ġserv ice
Ġt alk
Ġtemper ature
Ġin j
Ġbehav ior
Ġon line
Ġpos ition
h old
w h
Ġexper im
Ġcle an
he t
an ced
min ist
Ġ ut
Ġmat ter
it ation
Ġsoc iety
Ã ©
Ġcomp any
Ġcaus ed
ul ations
Ġhe at
Ġdis ord
Ġhe av
m on
y le
Ġdi agn
Ġ2 5
Ġprovid ed
Ġtra vel
ĠP e
Ġet c
Ġs leep
Ġs at
Ġcont act
Ġtra ining
ric ult
ful ly
a ff
ast ic
Ġsur v
Ġcaus es
ĠWh ile
Ġth ing
I D
Ġ19 4
l t
Ġ1 1
ĠS chool
Ġcon c
Ġbre ak
ĠN o
n s
ow s
ĠRes earch
ar r
Ġse x
Ġmean ing
en e
rop ri
Ġac cept
land s
Ġche ck
Ġc e
is ter
ren g
Ġeas y
Ġtru e
ve y
ed eral
ĠJ apan
Ġre v
Ġv ide
Ġvar i
Ġcont ain
ail y
Ġsh own
Ġdesign ed
le x
Ġl ives
in ary
Ġw ild
A T
Ġbr ing
Ġinclud es
ist ance
st er
Ġear th
Ġbenef its
h ood
ĠI I
ĠIn stit
rough t
ĠE m
Ġpre c
ist ics
Ġsp read
imate ly
Ġvar iety
A R
l ight
ron ic
Ġa verage
Ġstand ard
c hed
Ġsaf e
av ing
Ġmethod s
Ġst e
g ar
Ġcar bon
Ġm ach
ĠP ar
Ġpos itive
d om
ren ch
Ġreg ular
Ġsom etimes
ab et
ar ies
as c
Ġprog rams
Ġrel ative
at ives
Ġl ed
Ġe at
Ġb acter
Ġs low
Ġbelie ve
Ġsub st
Ġde ep
ri or
Ġiss ue
Ġgre ater
Ġf ru
Ġf em
Ġscient ists
Ġmus ic
Ġex c
n ers
Ġ Â
u fact
Ġorig in
Ġl ove
Ġre view
Ġtar get
Ġl if
er ation
Ġme chan
Ġsim ply
Ġresp onse
Ġv iol
Ġth reat
ic ine
Ġcom pl
ĠInd ia
ĠS u
am ed
Ġreport ed
os ition
Ġorig inal
Ġcult ure
Ġpol l
B ut
Ġdam age
ĠK ing
ĠP res
Ġinvol ved
Ġus es
du c
ar ily
Ġs ources
uc le
Ġwrit ten
ad es
Ġmove ment
Ġp age
n ew
ver se
eng th
Ġp sych
Ġhelp s
k now
Ġev ents
al ing
Ġp ict
Ġp le
Ġdo ing
Ġnorm al
ĠSc ience
r ast
Ġc amp
Ġdem on
Ġresp ect
Ġident ify
b an
Ġenc oura
Ġout side
Ġfood s
Ġcomp an
Ġt ax
Ġf ace
2 2
Ġim age
ial s
Ġrem ov
o or
Ġcomp on
ĠM in
ĠW ill
ra nd
Ġfore st
ĠS ec
ing ton
Ġst reng
Ġparticular ly
Ġpo or
Ġcomp et
Ġfor ms
Ġprodu ced
ac hes
Ġl ack
ĠAust ral
erv ation
Ġm icro
r im
Ġgener ally
Ġdevelop ing
Ġint eg
um b
Ġref er
op s
Ġt end
Ġ- -
Ġwe bs
Ġde b
b or
Ġl ate
Ġfe et
Ġatt ention
Ġdis pl
iss ions
id ge
Ġfor ce
u ge
s on
ie f
Ġbas ic
Ġser ious
Ġb al
Ġatt empt
ct ions
ĠP er
Ġl og
ac hed
Ġext reme
I N
Ġimp lement
2 5
Ġw ood
Ġsh are
Ġapp l
Ġsu st
ro om
Ġens ure
Ġl at
Ġatt ack
ol es
os ure
Ġnum bers
ĠE d
Ġelect ric
Ġteac hers
Ġvis it
is ions
ra ft
Ġs qu
Ġa ff
Ġinclud ed
Ġgrow ing
Ġvir us
Ġem b
Ġc ust
ĠM e
Ġcor rect
ĠC O
Ġ2 4
r ated
se t
Ġnet work
Ġind epend
Ġprob ably
Ġse lect
Ġcons ist
Ġc oun
ĠA pp
em s
ell ing
Ġm agn
ĠC ount
Ġess ential
Ġo x
Ġ ir
Ġide as
Ġdoes n
Ġdra w
Ġser ies
m ing
Ġanim al
Ġa ware
Ġhy d
Ġchall eng
Ġcontin ue
Ġh arm
ec ause
Ġem ot
ĠJ an
Ġcomm it
Ġv acc
ĠM any
ĠQ u
vent ion
Ġn ight
Ġm ess
ir it
Ġd ou
id ed
Ġpat ient
p art
f ect
c ies
Ġman ufact
os ing
Ġt akes
Ġb ab
Ġdef in
Ġget ting
ut h
ĠCh ina
ĠP re
Ġcol on
Ġag o
Ġpre p
Ġpolic y
ograph y
ad s
an a
rib ution
Ġth us
o ly
Ġintern ational
Ġsp eed
he l
Ġsaf ety
g round
Ġve get
Ġthere fore
Ġexp ress
ĠCent er
u ary
ri e
im um
t ies
ĠA g
Ġest im
Ġpr int
Ġk ids
Ġ /
w here
ens ion
Ġlook ing
Ġear l
Ġeas ily
Ġse a
ĠB o
n a
Ġsome one
Ġmed ia
Ġcon cent
e xt
Ġinst ead
Ġw all
Ġthe ory
Ġm other
ce ll
Ġf a
h aps
O n
Ġscient ific
Ġprim ary
ĠM ore
Ġinvest ig
Ġs il
i us
Ġqu ite
ww w
ers on
Ġfin anc
Ġc it
I S
Ġc ross
ĠI nt
ĠJ u
Ġs ou
o very
itud e
o es
Ġapp ropri
Ġw arm
ĠF rench
in ks
re w
an ks
Ġstart ed
l s
Ġd aily
i ot
if orn
Ġto wn
ĠA ug
Ġtradition al
Ġadd ed
as ons
Ġv it
Ġbo oks
Ġf av
Ġco ver
y ing
Ġperform ance
Ġallow s
Ġdeterm ine
an cy
h a
ce ed
ĠEurope an
Ġdiffere nce
Ġd ang
Ġf ul
Ġinst it
Ġt ree
er g
ĠP art
Ġd iv
Ġm ental
Ġestab lished
Ġhe ld
y r
ĠE duc
Ġs old
Ġlead ers
in o
Ġtool s
Ġn ation
Ġc ivil
Ġca pt
Ġt ur
r or
Ġt iss
Ġev al
Ġcommun ities
ĠY our
ien cy
Ġun c
Ġth ous
Ġref lect
Ġth ird
Ġpoint s
Ġachie ve
Ġdise ases
c il
Ġlar ger
Ġprog ress
Ġ4 0
or ks
Ġ i
Ġdec re
ĠInstit ute
Ġins ide
Ġtre es
ĠC ons
end er
ĠM ost
Ġquick ly
Ġmil itary
ĠInd ian
Ġe th
abet es
iforn ia
ell ow
Ġcomp ared
Ġoff er
il le
Ġmult iple
ĠA c
Ġimm edi
Ġfr ont
el t
Ġun ique
Ġhum ans
Ġal tern
ound s
Ġdirect ly
Ġansw er
ĠE l
ĠDep artment
use um
Ġspe ak
Ġre ve
ĠG l
r ate
Ġcompan ies
Ġey e
if t
Ġaddition al
pr il
ac es
om et
ce an
Ġhigh ly
Ġ201 0
Ġse vere
O R
Ġdr ink
und red
Ġr out
Ġdoc ument
Ġal though
Ġdemon str
Ġinf ection
A N
p e
Ġpro ced
r s
ic ated
Ġb it
Ġdoct or
Ġhtt p
O N
Ġso on
Ġsh all
Ġact ive
ter m
Ġbir th
Ġcl in
i ers
Ġbeh ind
ther n
Ġd ry
Ġsec urity
Ġlab or
d en
Ġp rior
Ġsol ar
ĠJ es
Ġfamil ies
O ne
ĠAfric a
om ing
ĠM arch
Ġ201 2
her n
ĠGerm an
gen cy
Ġexerc ise
Ġneg ative
il os
Ġext ra
j oy
Ġh ost
Ġas pect
Ġt ri
Ġw ent
Ġ ,
ĠS m
Ġuse ful
Ġw alk
Ġcent ral
Ġh or
ul ate
Ġbro ad
Ġb ad
Ġh ar
ĠW est
Ġac id
Ġtrans port
Ġa ud
iqu es
n ov
Ġbegin ning
Ġdec l
ĠCal ifornia
ĠO ct
form ation
ĠH ar
Ġvide o
is ms
Ġseem s
Ġh abit
Ġcrit ical
2 1
Ġwh ose
Ġprote in
Ġval ues
Ġ201 1
ĠR ec
Ġob t
I C
Ġlim ited
al y
ur ies
Ġsupp ly
ĠO ther
2 3
Ġf oot
ĠCh ild
Ġs us
Ġpurp ose
r ig
Ġacc ur
it er
Ġanal y
ĠJ une
Ġst ay
Ġlead ing
ĠR uss
Ġg ard
Ġse arch
ĠO f
y ond
um an
om b
im s
ĠIntern ational
Ġm ount
ĠAr t
v ant
ĠU s
Ġf ram
Ġqu ant
Ġc ard
H e
Ġtoward s
Ġte aching
it is
ĠCh ar
ol ar
I V
Ġst ra
m ar
Ġexp ect
ib er
ĠAfric an
ĠH er
r ition
ĠR iver
âĢ ¢
Ġh ot
Ġfe atures
ro gen
Ġsit uation
Ġn ucle
Ġim pl
Ġnew s
Ġsoft ware
l ation
g n
Ġhand s
Ġcont ains
ro te
Ġmin utes
ĠN ot
Ġb ase
Ġj ud
Ġcont ribut
Ġl ost
ort hern
S o
r an
Ġon es
Ġf ight
ĠG ree
ĠAl though
w ise
4 0
in ct
Ġp ack
Ġcust om
Ġinter p
ĠS ch
ĠSe pt
A nd
Ġs ection
Ġan cient
c oh
le ction
c ome
Ġele ments
it ch
ĠHist ory
Ġwr ite
he st
Ġst ri
ĠM us
pp er
Ġthink ing
Ġr ates
Ġrequ ires
Ġex act
Ġd ark
Ġex cept
or ing
at t
ri ption
Ġl ength
Ġf ast
Ġdescrib ed
ĠW ash
Ġh undred
Ġrece ived
Ġ x
se e
ĠS erv
Ġn orth
Ġor d
A S
Ġj o
iel ds
Ġel se
ĠAug ust
Ġb rought
ĠRe g
Ġcap ital
Ġwas te
Ġadult s
Ġad minist
Ġlar gest
Ġm om
hen s
Ġwork ers
Ġapplic ation
olog ies
Ġim ages
Ġinflu ence
Ġw a
f ort
ĠT ra
âĢĿ .
Ġag ricult
Ġag ree
Ġsust ain
u k
6 0
Ġstr ateg
ra el
Ġfinanc ial
us ed
Ġbl ock
ist ry
im in
Ġen joy
Ġnear ly
Ġwee ks
iz ations
Ġpriv ate
Ġc red
Ġcap ac
Ġloc ated
Ġdis p
Ġg ot
Ġprot ection
Ġdem and
Ġcar ry
ibr ary
ĠF irst
8 0
Ġdec ision
e qu
E N
Ġ2 1
ĠK e
v est
Ġl ines
Ġan g
ĠB ar
ĠM on
Ġestab lish
ĠS w
il es
i pl
ĠA pril
Ġwebs ite
b it
Ġm ill
ĠA nt
Ġcost s
ul ated
Ġs n
ip ment
Ġu lt
Ġtest s
Ġgo al
' re
ĠJu ly
Ġprocess es
ĠH ere
Ġm ole
c on
Ġplac es
od ies
Ġsit es
E D
Ġle aves
Ġdev ices
ĠT w
Ġra re
Ġbacter ia
Ġbec omes
Ġse ason
Ġsym b
Ġappropri ate
Ġe p
ĠD av
y ear
ra g
19 9
Ġcomm and
Ġrelig ious
ĠJes us
Ġm ention
Ġmem ory
P A
c ks
Ġlaw s
Ġad op
Ġproject s
ĠP ress
Ġg ame
ĠEng land
ĠC or
ĠAss oci
Ġimport ance
Ġsol ution
se ct
l ife
Ġre ach
Ġeff orts
ic a
Ġt able
ĠChrist ian
m ission
Ġad j
Ġrem ain
Ġs outh
Ġtyp ically
Ġb orn
Ġresp ond
ĠM c
id ents
ĠAmeric ans
u ous
Ġproper ty
m ed
e al
Ġto ld
Ġad apt
Ġbas is
Ġf it
ĠPres ident
Ġst ru
ent ially
Ġhim self
Ġra pid
ĠCanad a
im al
c ial
Ġinst all
Ġsur round
it ect
2 4
Ġve h
Ġco ast
Ġbe aut
ou d
Ġey es
Ġrem ains
ĠF rom
Ġ200 9
Ġc ool
ĠD ay
Ġf ather
Ġtechn iques
__ __
ĠM y
Ġtest ing
ines e
ie ce
iz es
Ġe gg
Ġde al
ond on
a ul
Ġsum mer
ĠPro g
Ġfri ends
res h
b ack
he ad
Ġcent er
Ġd er
Ġv ict
ce mber
Ġm ix
Ġg ives
est ic
o ke
A t
at ur
yp e
Ġadv ant
w ater
Ġf uel
h am
Ġconst ruction
Ġc rop
ĠWill iam
Ġd ied
Ġs on
Ġde ad
Ġapplic ations
Ġmil es
u ments
ĠGo vern
Ġcit iz
Ġcommun ication
ar ian
Ġe ating
Ġsa w
f ord
Ġc am
Ġk ing
ar i
Ġtra de
k ing
Ġcol d
coh ol
ĠC ong
ĠWash ington
Ġwe b
Ġteac her
Ġcreat ing
Ġ201 3
ĠP ark
Ġmon itor
Ġce le
Ġnot hing
Ġcult ural
Ġro om
Ġsu gar
b ur
Ġf inal
Ġany thing
m osp
am a
ĠC ity
Ġb reat
og en
ĠR et
Ġ200 8
I T
Ġrespons ible
Ġse qu
Ġexp ected
c les
i ra
Ġbehav i
Ġrec ently
Ġh ope
ĠIs rael
Ġfollow ed
ĠCh urch
Ġgra du
The se
Ġro ck
Ġh ous
Ġb ott
Ġ ice
Ġdep end
augh t
Ġobject s
Ġim ag
ex ic
ĠEduc ation
Ġtherap y
Ġevery thing
on y
ove mber
Ġant i
c o
Ġre asons
Ġbenef it
Ġold er
Ġp an
Ġfor ces
Ġdev ice
Ġc ou
Ġrece ive
Ġst age
Ġleg al
i ar
it able
ĠF eb
Ġm iddle
un ch
Ġu nd
Ġt en
Ġb ul
ill ing
e v
str ial
ĠJan uary
Ġte eth
ĠG reat
Ġm id
Ġsp irit
Ġc ode
Ġsc reen
Ġp en
Ġexp osure
Ġaut om
Ġbe yond
ĠIn c
ul a
Ġask ed
ĠJ ournal
Ġaffect ed
t ime
Ġf ederal
Ġmod els
ough t
Ġconn ect
ap ter
B y
Ġsc ale
ell ig
Ġequ ipment
Ġexam ples
Ġh yp
ĠSept ember
A C
Ġpre gn
Ġdi abetes
E x
Ġsmall er
ĠTe chn
u ff
Ġcon sequ
re es
Ġd ate
ĠC om
Ġprovid ing
Ġoccur s
ter y
l am
se c
Ġcurrent ly
ĠL ear
Ġcal cul
Ġcho ose
l in
a id
i ples
Ġconst it
Ġ2 3
Ġdrug s
ĠOct ober
Ġwe ather
Ġopportun ity
Ġstand ards
Ġw rote
Ġf ile
Ġeconom y
Ġra in
est s
Ġrecomm end
Ġcont roll
Ġprofess ional
Ġpract ices
Ġal one
Ġdig ital
Ġf ear
an ish
Ġinst ru
ed ia
à ¤
ĠSy stem
Ġ :
Ġgu id
c an
Ġset t
d ing
ĠE ven
Ġloc ation
Ġsuccess ful
Ġc ra
Ġcomplete ly
Ġw on
l amm
Ġins p
Ġorgan ization
) ;
ĠCount y
W ith
Ġconf lic
osp ital
ĠB i
Ġcolle ction
Ġdeg ree
ver t
Ġt it
Ġtry ing
Ġbir ds
Ġappro x
Ġvis ual
ĠCh inese
Ġearl ier
rib ute
Ġbe g
Ġyour self
Wh ile
ĠDe velop
Ġpur ch
ĠD NA
Ġpred ict
air s
b ook
a ur
ĠI S
Ġevery one
Ġw oman
m en
ens ity
Ġr ise
Ġs we
ac ed
Ġw inter
Ġeff ort
lo ad
Ġallow ed
mit ted
en ge
Ġplac ed
Ġdiffere nces
Ġn amed
Ġsh ape
Ġstreng th
Ġrul es
Ġdest ro
ĠV ir
ĠE c
ic ate
Ġmeas ures
w ide
Ġv ia
Ġ6 0
Ġinterest ing
2 7
Ġconst ant
ĠL ondon
Ġgo es
oc ol
Ġplan et
ĠM exic
ric k
Ġfor mer
ĠS ur
ĠE ast
ĠP ol
Ġover all
o e
Ġb all
ĠD is
Ġc ru
Ġvir t
Ġj oint
Ġs ch
ĠThe n
Ġle ave
Ġex ec
Ġmem ber
ru ary
Ġcommon ly
ĠA ccording
od ay
Ġb illion
Ġne igh
Ġcomm erc
ies t
Ġcontin ued
Ġredu ced
Ġc ateg
oc r
Ġ19 3
Ġdisc overed
ĠTr ans
ĠO ur
Ġus ers
ĠS an
Ġis n
ĠR ed
Ġen h
Ġh on
Ġus er
Ġgen etic
ĠDe cember
Ġp et
ing u
ĠH igh
ar a
Ġocc up
c ious
ĠComm un
Ġpo ly
ĠR oman
ĠB r
at ers
Ġdispl ay
Ġ200 7
Ġelect r
Ġmaint ain
o ff
st e
Ġac qu
ĠS im
Ġappl ied
hem at
Ġident ified
b l
Ġper fect
s u
oc ks
ire ction
Ġent er
ĠL aw
ee ch
ĠRe ad
2 9
Ġstep s
Ġtra ck
Ġhistor ical
2 6
Ġform ed
Ġro b
ĠV al
Ġto x
re et
Ġe ight
Ġpower ful
S ome
ib ly
m ore
Ġr ule
Ġm iss
ord s
A L
Ġg old
Ġvers ion
b re
Ġm is
Ġm ax
ed om
Ġd en
Ġs ect
Ġw ond
Ġcom ing
i able
ent y
ĠD uring
or ation
Ġr ich
Ġph ilos
Ġmajor ity
ĠIn st
Ġcour t
Ġbab y
c raft
ĠP at
Ġstat us
Ġcomp ar
Ġsign s
Ġcont ext
Ġch urch
ĠC oun
Ġev olution
ĠN ovember
Ġat mosp
Ġte ach
ĠM od
Ġf air
al t
qu e
ĠGen eral
em y
Ġg ave
Ġfru it
ĠAr ch
Ġro ad
ĠC our
Ġshow ed
Ġlim it
al ed
7 0
en cies
know n
Ġc ook
Ġac ad
Ġproper ties
ra b
Ġm ig
Ġp ow
Ġm ob
ger y
re c
Ġcapac ity
2 8
Ġ19 5
Ġper haps
Ġpres ence
os y
Ġem issions
ĠJew ish
Ġc ities
at in
Ġ +
ĠB ecause
Ġass ign
am ent
Ġa st
ain t
Ġst im
Ġincre ases
Ġill ness
P ro
Ġn ames
ĠAl so
Ġm outh
Ġnot e
Ġrelative ly
Ġr at
ĠF in
Ġas se
Ġrem ember
ĠUn ion
ĠSoc iety
ast e
ĠH ouse
Ġg ir
" ,
Ġm ut
Ġimm une
Ġtiss ue
Ġb ra
Ġbelie f
Ġful ly
ĠS ince
Ġdid n
Ġill ust
Ġcho ice
ph as
Ġpe ace
Ġsymb ol
Ġd at
rel ated
Ġchang ed
E C
ĠBl ack
Ġpattern s
Ġact ions
Ġconst ruct
in ated
Ġant ib
Ġsit u
ĠCon f
od es
res p
Ġappear s
Ġe fficient
or ge
er a
tern al
gy pt
Ġfem ale
Ġexist ing
ot ed
ĠW ater
ien ces
ĠAustral ia
Ġt ou
Ġmach ine
Ġc ry
ir ing
Ġass ist
Ġst aff
Ġnut ri
Ġfact or
Ġun it
Ġr iver
Ġwork ed
Ġwor th
I I
if ul
Ġv ill
Ġinc or
ud d
ri ef
Ġmov ing
ĠGerm any
ĠPro t
Ġal cohol
a ign
Ġp p
Ġmom ent
ĠA re
Ġpict ure
e es
Ġtrans fer
Ġp iece
ĠN ow
Ġpr ice
Ġrep e
Ġ2 6
Ġcompon ents
Ġst ories
Ġexp and
Ġcont ract
Ġeduc ational
ĠPro f
Ġf resh
Ġem p
Ġ2 8
Ġfor ward
Ġt ask
Ġg iving
Ġarch itect
Ġm ission
ess ion
Ġfun ctions
Ġstru gg
h ouse
A d
Ġele ment
ĠU se
Ġe ffic
ĠJ ust
ĠFr ance
Ġfore ign
am b
ab ilities
er o
Ġm ap
ĠPe ople
i ate
Ġbo x
Ġbre ast
Ġeval u
Ġcon vers
ĠAssoci ation
Ġ200 0
ĠR o
ĠF l
rie ved
Ġreport s
rom e
ĠN A
Ġst ar
Ġha ir
k y
Ġinst ance
for ce
ic ip
Ġw id
Ġopportun ities
I s
Ġequ al
Ġfind ings
Ġte le
U n
Ġd irection
Ġobserv ed
Ġoff ers
in y
re hens
Ġconsum ption
ĠEn vironment
Ġan x
Ġdet ect
Ġbal ance
ĠFeb ruary
Ġdist ance
ru pt
Ġreg ions
Ġ2 7
Ġplan ning
Ġn ative
Ġthous ands
Ġass um
Ġchalleng es
y gen
S T
Ġv o
Ġcoll abor
Ġdetail s
Ġin nov
Ġ ing
Ġbl ue
Ġqu al
ed ing
Ġoff ice
Ġvis ion
Ġbelie ved
Ġm al
Ġwe ak
Ġwr ong
Ġrun ning
ĠCong ress
Ġabs or
H E
l im
as ion
Ġ2 2
Ġfri end
ig en
Ġfam ous
ĠA ng
Ġpass ed
Ġch ance
Ġh uge
Ġinst ruct
Ġsur pr
Ġst yle
h ors
Ġexpl ain
Ġpl ans
B e
al d
A ll
Ġex hib
Ġa im
ĠPh il
Ġdisord er
om a
Ġsur vey
om as
Ġsp ect
c he
Ġmus cle
ĠThe ir
Ġcitiz ens
Ġp hen
pp ed
âĢĿ ,
if ically
Ġb ound
Ġdef ined
Ġmil k
Ġw atch
pect ive
Ġsepar ate
Ġgu ide
le ge
ĠE ach
Ġg ain
im ent
Ġclass room
Ġtre ated
D A
io x
Ġ â
ĠU K
Ġevent ually
n es
Ġsignificant ly
Ġfav or
Ġclin ical
Ġin sect
Ġcommerc ial
Ġopt ions
c ont
te e
Ġfe ature
Ġ200 6
Ġsuggest s
Ġinc ome
ĠE gypt
Ġb one
Ġextreme ly
y d
ĠG reen
or age
Ġsupp l
u ild
Ġit ems
R E
og le
Ġgo als
ĠIntern et
Ġres istance
s es
Ġa p
Ġf igure
Ġpresent ed
Ġlearn ed
Ġcele br
Ġf ix
Ġgard en
ograph ic
ĠW estern
Ġf ert
Ġm ale
ch ing
b ed
id ing
Ġhig hest
Ġcar ried
Ġ iron
ec es
ward s
Ġstrateg ies
Ġheav y
Ġse ven
Ġapp ly
Ġex cess
Ġatt ract
Ġsp ring
ĠTh us
Ġs ac
Ġstruct ures
9 0
Ġorgan izations
Ġdep ression
Ġgener ation
ĠL ord
Ġimmedi ately
Ġrequire ments
Ġj ournal
Ġbo ard
Ġtechn ologies
A fter
Ġd ivid
ĠP ublic
Ġhapp en
ĠD on
ĠJapan ese
ĠP al
ĠProg ram
Ġur ban
i ance
op hy
ĠWe b
Ġapprox imately
Ġp ick
c are
Ġexperien ces
Ġ201 5
Ġpl astic
k en
ch ar
ĠC ur
ĠU N
ch ange
Ġeas ier
c ast
Ġexpl ore
ĠB ra
Ġtr uth
Ġut il
ent h
Ġne u
Ġmed icine
ĠJ ames
Ġres ource
Ġgl ass
a res
Ġdec ades
r is
Ġro t
olog ist
Ġc and
Ġdestro y
ub e
ul um
Ġindu strial
ĠRe v
i ated
Ġleg is
Ġact ual
z z
ĠS ee
u it
Ġsa ve
ĠD ec
Ġem phas
Ġd yn
ĠA ut
ĠSp ec
ĠV ol
Ġre ality
Ġl iqu
is ation
ĠIn ter
Ġ200 5
Ġpop ulations
Ġconduct ed
Ġst ream
Ġm o
ĠM or
3 5
Ġh om
i ant
Ġv ary
The y
Ġfa ith
Ġb odies
Ġmov ed
Ġb ank
Ġintrodu ced
Ġsl ight
id a
us es
Ġser ve
Ġrele ase
Ġdec isions
ĠM ich
er ate
A r
Ġaltern ative
Ġexperim ent
Ġv es
Ġchall enge
Ġbec oming
Ġcy cle
Ġm er
Ġnucle ar
Ġrecord s
ĠPl an
Ġgen e
ĠCoun cil
Ġb ed
Ġsp eech
Ġestim ated
Ġ ign
Ġdisord ers
Ġdist ribution
Ġperform ed
ĠM at
ĠL et
ant ic
Ġno vel
Ġassess ment
Ġtop ic
Ġf ig
Ġnut rition
Ġbuild ings
Ġaspect s
Ġelectric ity
Ġfrequ ently
ĠM ary
Ġrem ove
Ġk id
Ġint ellig
Ġag g
Ġmet al
Ġm ag
Ġop in
Ġsex ual
cl us
Ġ8 0
ous ly
ra w
Ġf ields
im ens
ap ers
ĠDav id
Ġ19 0
Ġp ul
d o
Ġindepend ent
Ġrecomm ended
P h
ro ph
Ġfil m
ĠCol lege
un ction
as ks
Ġcont rast
ul f
ot hes
Ġgra ph
ĠF ound
Ġvit amin
Ġ201 6
Ġsam ple
Ġref erence
ĠC he
ĠRet rieved
Ġch ronic
Ġrele ased
E T
Ġwide ly
Ġro ot
b al
Ġcomb ination
Ġnot es
ĠO ver
ĠD es
Ġfl ood
Ġbu y
Ġh omes
Ġpres ident
ord er
Â °
Ġ201 4
Ġcaus ing
ĠChild ren
Ġpart y
Ġ esc
Ġoper ations
c ular
ĠGree k
Ġlet ter
ic ial
Ġdou b
Ġox ygen
ĠDevelop ment
por ary
Ġclear ly
P S
ĠN et
Ġorgan ic
erv ed
ress ive
Ġtrans l
4 5
Ġhouse hold
Ġtemper atures
t ical
Ġt our
ag er
r ant
Ġdes p
oc al
m et
Ġnum erous
Ġbott om
Ġconn ected
olog ists
Ġst ore
p ed
Ġk illed
ol id
Ġo cean
i as
Ġrad io
S h
Ġresult ing
w orks
Ġset ting
re st
Ġdiscuss ion
Ġwant ed
Ġtr ust
Ġris ks
Ġdog s
Ġtechn ique
Ġl ived
Ġcharacter istics
te red
ĠT ex
ruct ure
Ġdr ive
Ġchang ing
Ġapp e
ĠH uman
Ġliter ature
ol ved
Ġpre fer
Ġcamp aign
Ġem ail
ĠR el
ra ction
Ġ #
Ġter rit
rou p
Ġm ic
Ġfail ure
ogn itive
Ġnot ed
Ġhe ar
Ġth r
Ġun ivers
Ġcre ation
ĠS am
Ġc overed
ot es
Ġget s
el ines
Ġlay er
ĠSp anish
Ġmin or
Ġviol ence
Ġpart ners
Ġstart ing
3 3
Ġis ol
Ġtr ig
ere nces
il it
at ically
Ġpre par
Ġturn ed
ĠT ur
Ġbat tle
E M
ĠRep ublic
A M
ĠGovern ment
Ġany one
Ġpolic ies
Ġparticip ants
Ġrad iation
ĠM useum
Ġinj ury
Ġd rop
i eces
ĠA v
Ġinit ial
Ġsur gery
Ġn or
ĠP aul
Ġaut hors
Ġt um
Ġves sel
ke y
ĠF ood
Ġread y
i i
Ġredu cing
lic k
Ġsol utions
Ġdist inct
ĠSoc ial
row s
Ġ2 9
ang ing
ĠH IV
Ġconn ection
Ġb urn
ond s
Ġ18 6
Ġintern al
Ġdeg rees
Ġs av
m ark
Ġrepl ace
iven ess
Ġrep rodu
Ġt im
Ġar m
ĠC ath
Ġd ed
Ġu pper
i os
i j
Ġd ri
ĠU nder
ĠW ork
n am
Ġmess age
Ġmeet ing
het ic
Ġfre edom
ĠO ff
Ġphys ic
ess or
Ġmost ly
Ġinf lamm
Ġrefer red
Ġcoun ter
Ġt rou
Ġexp ression
nd rome
Ġhapp ens
ĠThere fore
Ġgen es
Ä ģ
Ġto oth
Ġremov ed
Ġann ual
iet ies
osy stem
cept ion
Ġinvol ves
Ġcolle ge
Ġsh ap
a ult
ĠGe orge
A ccording
c op
o ch
Ġw in
ur ance
O S
Ġdang erous
Ġple ase
Ġstate ment
Ġback ground
Ġcirc um
Ġexact ly
ĠR ober
Ġtre nd
le ase
Ġwh om
Ġfind ing
Ġst orage
iver se
Ġrelationship s
ĠO b
Ġt rib
Ġh orm
Ġmention ed
7 8
Ġcon v
How ever
ĠF ore
ĠPro ject
Ġvol ume
ress ed
w ith
Ġproper ly
Ġis land
Ġo ption
ĠM ount
Ġrelig ion
Ġlo ad
Ġfeel ing
Ġprinc iples
Ġout put
Ġv ul
Ġs and
ĠA ir
Ġup d
Ġencoura ge
Ġg ames
Ġhelp ed
Ġclass es
Ġdeterm ined
Ġun f
Ġhe ard
Ġadj ust
Ġadvant age
Ġinf ections
Ġex cell
Ġth ick
ĠT est
Ġf ine
Ġs em
Ġcl ick
ĠCour t
Ġp al
or ial
oy al
z a
ĠO nce
Ġp ric
ĠIs land
ortun ately
Ġsc en
Ġadv anced
Ġconf irm
Ġmat hemat
Ġd ram
at form
and er
stit ution
ĠJew s
ish ing
r um
Ġexp osed
Ġra ce
Ġinvol ve
u x
p ing
m al
ĠS un
Ġacad emic
Ġgr ass
Ġun its
Ġc ore
Ġal g
is her
Ġ9 0
ĠIn f
Ġserv ed
Ġinflu en
7 5
Ġexper ts
Ġdescrib e
s s
ro g
le g
ric ulum
Ġd ie
ur ation
Ġel imin
Ġregard ing
Ġincor por
ĠWh y
ri age
ĠM ars
Ġcons ervation
Ġlead s
Ġke pt
Ġanx iety
Ġcomp rehens
Ġexperien ced
Ġgr ant
Ġ200 4
Ġbeaut iful
Ġprocess ing
Ġse ed
Ġbel ong
Ġp ages
Ġland sc
Ġme at
re p
Ġre b
Ġn orthern
Ġprevious ly
Ġ201 7
all ed
Ġsh ip
Ġin h
Ġamount s
ro ad
Ġinterp ret
ĠP ort
ĠMexic o
Ġl ung
Ġse eds
ĠPh ys
Ġdep ending
Ġdef ic
Ġart icles
Ġreact ion
ĠOr gan
u ing
Ġdec ided
ĠAs ia
um n
Ġsou thern
Ġprep ared
Ġsy nt
H ere
Ġlink ed
R es
ĠServ ice
ĠIt s
Ġsol id
Ġs ort
S p
ot ing
ag o
Ġrele vant
Ġ ...
ĠH en
Ġin put
Ġ7 0
it z
ĠG ra
m at
ĠL a
Ġinterest ed
ur t
3 6
ber g
Ġh our
Ġpoll ution
Ġconflic t
w ell
Ġdat ab
on ic
Ġoper ation
Ġvol unt
Ġfarm ers
ribut ed
ut ed
Ġprom ote
ĠR ich
Ġatmosp here
c ers
Ġj our
pl ace
Ġr ound
Ġoffic ial
ate gy
Ġsp ot
ĠTex as
Ġprofess ion
w ood
N ew
in ate
Ġg od
Ġsay ing
t a
M any
Ġsp ent
Ġm ist
Ġcal c
Ġob vious
Ġwe alth
bo ard
. ;
ĠM al
Ġmanufact ure
Ġess ay
Ġsqu are
Ġw est
Ġegg s
am s
C C
k in
ĠM ark
Ġexper t
t es
Ġm el
Ġme ant
y a
Ġc ere
T hat
Ġph ase
Ġtrans form
Ġpres c
ĠD em
Ġcomple ted
Ġstr ategy
as tern
Ġdis s
Ġconcept s
Ġconcer ns
Ġhelp ing
Ġconcer n
Ġlangu ages
m p
Ġhe aring
augh ter
Ġb ud
Ġmot or
wh ich
ĠE v
Ġf ol
Ġemot ional
C on
Ġg ender
Ġeffect ively
Ġconc lud
Ġsign al
Ġcons ult
Ġpre t
r ans
ĠIs lam
ĠS T
z ing
R O
Ġcom fort
Ġco al
Ġinv ent
ri a
ĠAc ad
Ġengine ering
v ision
n ic
d ed
ĠS er
ĠB el
ify ing
Ġs ong
ac ific
W hy
Ġimpro ved
ĠStud ents
Ġproced ure
Ġman ner
Ġre ached
Ġp ieces
Ġl ic
Ġa id
Ġp un
Ġman age
ĠJ er
Ġsustain able
onom ic
Ġm ath
re te
Al though
Ġcon ver
il ing
b all
Ġinstit utions
Ġcred it
orm al
ĠS ub
Ġchemical s
Ġst ation
Ġgra de
Ġ200 3
Ġprop osed
Ġsupport ed
ĠH el
Ġn av
Ġeffic iency
ĠB er
Ġh op
ok ing
Ġapp oint
Ġsee k
Ġint ended
Ġveget ables
Ã ¡
Ġchar ge
i ology
Ġw et
Ġl ib
Ġaware ness
Ġdiagn osis
Ġdrink ing
1 00
ĠL ou
Ġvacc ine
Ġmain ly
Ġauthor ity
Ġdisc over
stand ing
ren ce
3 8
Ġp ip
Ġh ospital
Ġcl os
am ple
ĠVir gin
d es
O ur
Ġk ill
ul es
Ġcor resp
Ġpurp oses
ĠB as
ĠJ e
Ġbro ther
ĠA D
ĠWh ite
Ġy ellow
Ġfrequ ency
Ġsec ret
Ġdefin ition
Ġc ast
at ric
ĠM iss
Ġown ers
e k
op er
u able
Ġst orm
Ġyou th
am ental
os ite
Ġprofess or
Ġlo oks
Ġsu fficient
ot ic
ĠNA SA
Ġtox ic
Ġcontin ues
Ġphen omen
Ġfin ally
C l
r ates
Ġnot ice
ĠD i
l ig
ĠBrit ain
Ġd oll
ĠR em
v is
' ll
al le
Ġpract ical
Ġp ark
Ġcom ment
Ġallow ing
Ġw aters
is hes
N ow
oun ced
Ġsam ples
Ġ3 5
Ġform ation
cl usion
ĠS en
Ġm ort
F rom
Ġrecord ed
Ġsh ared
ak ers
ear s
Ġtechn ical
ĠI r
ĠE very
el ine
Ġvul ner
Ġar my
Ġless on
Ġcomb ined
Ġbeg ins
Ġd ro
Ġfor ced
Ġwond er
ĠA rab
ĠâĢ ¦
ag s
Ġmot iv
Ġredu ction
Ġsus p
Ġre new
Ġoff ered
ĠC ivil
Ġco ord
Ġprim arily
Ġh it
Ġlarge ly
ĠL atin
Ġpl atform
ĠS al
Ġhe ight
et ers
Ġfact s
g l
ĠMed icine
A D
it ors
r ations
Ġf oss
Ġexist ence
Ġindic ate
Ġelectr ical
ĠCent ral
Ġfor t
an ch
ak er
ri er
h t
C O
Ġt aught
Ġmor ning
Ġthe r
Ġm aster
Ġdyn am
Ġe ast
ĠTh omas
ĠH ol
ĠM ac
Ġrem ained
Ġoccur red
ĠM art
Ġjob s
r as
Ġext ent
com es
M ost
ar row
ĠO ld
ĠFr anc
3 4
Ġsect or
ĠSp ace
Ġec osystem
Ġsubject s
Ġb rief
oss ible
Ġ200 1
Ġkind s
Ġhtt ps
Ġf lex
g ra
i xt
Ġide al
ĠEn ergy
U S
ĠAr my
w est
ĠM r
ĠM et
Ġbir d
Ġcont ribute
ĠAt l
ing er
Ġfocus ed
esp ite
Ġsitu ations
ĠD ist
Ġcr is
Ġtreat ments
act ers
Ġf ib
ĠD ise
E L
ĠC le
ro ke
A b
e y
Ġn ations
Ġstra ight
ĠB ay
ĠMed ical
ri an
ĠC am
Ġbr ight
ĠComm ission
ĠNew s
Ġcent uries
ag ue
Ġcertain ly
in ent
atur ally
o o
A meric
t ion
Ġper man
ul ating
Ġsal t
' ve
Ġ199 0
ĠF re
Ġhy per
n ame
in f
Ġbl og
Ġconsequ ences
Ġt asks
Ġshow ing
ad o
ol ute
Ġliqu id
Ġspec ifically
Ġsp end
Ġoper ating
ĠB en
Ġmus cles
Ġcollect ed
n el
Ġident ity
ĠJ ud
Ġra ised
Ġf aster
w hat
Ġadv ance
R I
Ġinit i
Ġatt acks
Ġ200 2
ĠF urther
Ġf elt
Ġemer gency
9 9
Ġmot ion
Ġexcell ent
Ġl ov
ipp ed
Ġrec y
Ġdou ble
Ġdig est
Ġt ro
rap y
Ġrev olution
go ing
Ġkeep ing
Ġ *
Ġqu ar
O T
ĠD irect
er ia
ĠM ass
Ġset tle
Ġpro s
yr ight
Ġrespons ibility
Ġother wise
c ript
Ġpers ons
Ġcare er
ul s
Ġpartic les
Ġw ife
Ġb ill
Ġprote ins
Ġgood s
ens us
Ġmeas ured
a el
4 8
um in
ist an
Ġsh ar
ĠCl ass
ĠF lor
l ar
Ġlet ters
ew ork
Ġsound s
Ġimpact s
th at
os en
Ġl inks
r ich
os a
Ġcl im
Ġmet ab
Ġdetail ed
Ġn erv
ens es
Ġv ast
Ġagricult ural
Ġnutri ents
Ġdesp ite
Ġflow ers
ĠK ore
Ġf if
ĠTechn ology
ĠSec ond
ang es
Ġsurround ing
Ġsy n
Ġref ers
un k
A P
Ġlead er
Ġcompon ent
N D
ĠQ ue
Ġfac ilities
Ġbi ological
Ġmonitor ing
Ġadv ice
Ġk m
P l
c ol
ĠD ef
r ight
Ġhelp ful
Ġm ere
ĠB ook
it ness
oth ing
Ġgra nd
Ġex ternal
Ġtr ial
Ġexpl an
ĠB ible
ol ars
ic ed
ough ly
N o
igen ous
Ġvo ice
Ġk il
Ġres ist
Ġs now
ĠP acific
ĠL ife
Ġst one
p oint
Ġp il
Ġaffect s
Ġro ll
ail s
Ġha z
Ġon to
Ġ Ã
Ġsuggest ed
I m
Ġv ent
B C
Ġc ert
Ġk n
Ġperiod s
Ġv ital
v ille
ĠB oth
Ġth in
Ġchar acters
Ġb ow
Ġapp arent
Ġimm ig
om pl
Ġfamil iar
ĠO p
Ġval id
Ġexpl ains
d own
ĠLear ning
ĠM il
I ON
Ġgreat est
Ġs end
Ġtyp ical
Ġor al
ĠB udd
M S
om etimes
] .
Ġare n
ĠB ur
w in
f ield
Ġhabit at
Ġslight ly
Ġfund amental
in ant
Ġsat is
Ġsc he
ak s
3 9
Ġl ose
Ġgir ls
Ġc ognitive
Ġaccur ate
Ġstud ied
Ġplay ed
Ġmax imum
h i
ĠFound ation
Ġinterest s
p at
Ġw estern
Ġdivid ed
Ġmo ist
b and
Ġincreasing ly
Ġpers pective
Ġcontroll ed
ĠE lect
Ġra il
3 7
Ġtest ed
Ġsubst ant
Ġfl oor
ov iet
Ġthough ts
Ġpregn ancy
Ġn it
Ġrequ est
ĠIn formation
ind ing
Ġflu id
ĠTw o
Ġfollow s
ĠSt and
Ġreturn ed
Ġsub sequ
Ġhapp ened
Ġoffic ials
Ġj u
Ġveh icle
rast ructure
ac he
ut ive
Ġdep ends
res ents
Ġneigh bor
Ġinstru ment
Ġfl at
Ġexpl ained
Ġcrop s
Ġtop ics
ĠL ake
Ġl iver
Ġinst ruction
ĠS ou
Ġpro port
rol og
ĠRober t
Ġhar vest
Ġch ann
str onom
ĠW ind
Ġlook ed
it age
st ood
Ġpric es
ro c
Ġcon vent
Ġst ars
ver ty
v an
Ġr ural
Ġfil es
Ġpot entially
om y
ing ly
Ġdis app
Ġpo verty
ath y
Ġdi am
ific ial
ĠP sych
g ment
Ġcons cious
bur g
hip s
Ġsp l
Ġcons ists
Ġfru its
ĠT oday
ĠCath olic
Ġconcer ned
Ġrecogn ized
Ġdep th
is p
Ġobt ained
act ive
M ore
Ġcont aining
Ġgovern ments
ĠSm ith
Ġp ray
Ġinter view
ĠT reat
ate ver
Ġgrow n
ĠD ata
as ure
Ġs in
f l
ro id
Ġt ried
Ġl ik
Ġst em
Ġcris is
Ġph one
Ġprot ected
Ġprinc iple
anc ing
ĠO ut
ĠC D
Ġplay ing
4 4
um ber
Ġhundred s
Ġcur riculum
Ġwall s
Ġs en
ĠCar ol
Ġappro aches
Ġf le
ĠN or
Ġclose ly
g al
ĠJ ose
Ġpr ison
Ġne ut
Ġrapid ly
ce ler
Ġpain t
l i
l a
Ġp ig
ĠSe a
Ġtra in
ĠB C
IN G
ĠM iddle
Ġcontin uous
Ġport ion
Ġd ut
Ġappe ared
ĠL and
Ġimm un
Ġele v
ĠUs ing
Ġwe ap
ĠChar les
Ġpol ice
ĠN av
Ġmed ications
Ġt ips
Ġsy ndrome
ĠW omen
c hers
6 5
Ġd ial
An other
Ġinvest ment
Ġselect ed
ĠM ont
ec k
ost er
Ġlat est
Ġvis ible
Ġcard i
ĠH am
Ġ18 8
Ġacc ompl
Ġclaim s
Ġappear ance
il ed
Ġrep resents
ĠW ell
Ġ201 8
ĠRuss ia
3 2
ĠRuss ian
Ġsat ell
ĠAn other
ĠHen ry
Ġext ract
Ġres idents
9 5
Ġch ief
Ġdel iver
.. ..
Ġarg ument
D o
Ġproced ures
Ã Ń
angu age
Ġspirit ual
T S
c est
or al
ĠM em
Ġconcent ration
in ations
Ġsuff ering
el lect
ic ks
ĠW ild
ab il
Ġp aid
u ke
Ġb and
Ġra nd
ĠS oviet
Ġdirect or
Ġdecre ase
Ġdiscuss ed
Ġcru cial
Ġst ock
Ġtit le
Ġval uable
Ġg un
Ġal t
Ġcorresp ond
? âĢĿ
Ġview s
Ġre form
Ġro ots
Ġs ed
Ġg ar
Ġasse mb
ul in
Ġag es
l iam
z y
ĠGo ogle
D e
Ġfeel ings
ĠF am
Ġle aving
Ġmin imum
ot a
Ġadv oc
Ġform at
Ġh unt
m as
st ate
Ġk new
Ġst ated
Ġ <
Ġs ides
Ġmed ium
Ġab use
ĠL ibrary
f all
Ġexp ensive
Ġdist ingu
Ġs ick
Ġf irm
Ġcont em
l ers
asc ular
Ġdeath s
Ġ20 20
B N
ĠU p
Ġrand om
Ġp ump
ĠEng ine
ĠD el
ĠS uch
Ġsim pl
Ġp u
Ġmor al
Ġdisc overy
Ġn aturally
Ġw ire
Ġinc hes
ten ance
ar io
ĠR ef
Ġ4 5
Ġdoc uments
Ġbusiness es
Ġregular ly
Ġsm art
ĠR ights
I nd
in du
Ġfund ing
al ian
Ġf rag
ĠLou is
ĠComp any
Ġre in
Ġcircum st
Ġdom estic
ra cy
ĠVirgin ia
19 8
ĠL ike
ĠEm p
ĠD isc
Ġadd ing
Ġsold iers
st ream
an es
D F
Ġmove ments
Ġst ret
Ġdr iving
ĠSt e
ĠStud ies
âĢĻ .
al se
Ġjust ice
ic it
Ġless ons
Ġout comes
ĠInst ead
Ġcou ple
r ants
Ġagricult ure
f ree
Ġw el
ĠT em
b ing
Ġset s
Ġ201 9
Ġs an
Ġ199 9
ĠEnvironment al
Ġhor se
Ġintern et
Ġsec ure
Ġo d
Ġmill ions
o oth
Ġpar am
Ġrecogn ize
Ġcap able
Ġcor por
Ġemploy ees
Ġcol ors
Ġd iversity
Ġad equ
ĠM ake
Ġwe ar
ĠSu pp
Ġrec overy
Ġex change
Ġsubst ance
re m
ber t
S c
3 1
Ġshe l
in et
. |
Ġing red
om ach
4 6
ter ies
Ġra ise
Ġinf ected
ĠCont rol
ĠS um
Ġsens itive
Ġinflamm ation
ĠN ature
b i
Ġentire ly
at tle
ĠHist or
O ther
7 6
Ġsuff er
ĠP ost
Ġin ject
Ġn arr
liam ent
ad a
cl ing
Ġp ure
Ġlab el
S ee
Ġd u
C S
Ġb rown
ĠO x
G en
ol a
Ġtalk ing
Ġimp ossible
Ġdist rict
D uring
Ġsecond ary
ol f
T e
l ong
Ġall erg
Ġtra d
Ġinf rastructure
k a
Ġl ibrary
in n
Ġpart ies
Ġaccept ed
Ġenh ance
Ġp ush
Ġst ages
d den
c a
ĠS af
ol ve
Ġun iverse
Ġg all
Ġfac ilit
pp ing
ĠFlor ida
Ġabs olute
Ġinc l
Ġprec ise
ĠD iv
Ġm it
Ġcl osed
Ġrec on
Ġdatab ase
ĠG roup
H O
ot o
Ġnet works
Ġexperim ents
cul es
es ity
Ġmy th
Ġind ex
Ġacc omp
D r
ex p
Ġnorm ally
idd en
Ġfert il
Ġn arrow
Ġprevent ion
Ġpict ures
ĠSc ient
ĠMan agement
Ġcand id
Ġbehavi our
Ġun like
Ġfl ight
5 00
Ġwarm ing
Ġpre m
Ġint ake
Ġm oon
Ġadop ted
ĠOff ice
Ġinter f
Ġm amm
Ġform al
Ġmass ive
uild ing
ĠK en
re ed
r id
yp es
y e
ĠP C
com p
as p
Ġch apter
Ġcall s
Ġmob ile
ag ues
w ar
av a
Ġprodu cing
Ġdescrib es
ĠA p
Ġintellig ence
Ġopin ion
sp ec
Ġgener ate
Ġdisc rim
Ġrec ip
Ġreg ional
Ġ3 1
Ġb le
Ġwild life
Ġopen ed
Ġorigin ally
Ġwor s
Ġr ub
Ġfig ures
ĠA lex
os al
Ġse lection
Ġintrodu ction
Ġtra ffic
Ġw ave
ĠM o
5 5
ĠComm it
Ġposs ess
Ġa part
U s
Ġlist ed
Ġch ain
ang ed
Ġlif est
Ġpre f
Ġpo et
st on
Ġsu dden
4 7
ĠT er
ĠB et
G o
Ġco ff
Ġn an
ĠK now
ocr atic
ib ilities
Ġspe aking
Ġair craft
Ġtou ch
ag ers
Ġworld wide
Ġcomput ers
Ġmount ain
Ġhous es
ĠCon stitution
oles ter
at o
Ġantib iot
Ġbud get
ĠF ederal
Ġvill age
ĠL abor
Ġto ler
Ġunder stood
Ġforest s
Ġd ental
Ġcreat ive
n ormal
rop ical
Ġb ones
Ġrepe ated
Ġ >
Ġposs ibly
Ġleaders hip
a it
Ġwor se
Ġsurv ival
dition ally
Ġdec line
Ġext ensive
Ġun less
Ġer a
Ġreve aled
Ġt un
or gan
Ġposs ibility
Ġste el
Ġlat ter
f low
Ġam b
or ith
Ġag encies
Ġveh icles
ct ic
ab ric
on a
Ġachie ved
Ġguid elines
Ġan cest
Ġst ick
Ġprep are
Ġn urs
os ph
Ġf ill
r ors
L E
ad d
m ic
Ġmed ication
ĠM icro
Ġsu c
Ġmanufact uring
Ġcons id
ĠCol umb
ĠT HE
Ġlandsc ape
Ġf ell
Ġa w
er als
viron ments
Ġmar riage
Ġa qu
Ġpret ty
Ġcomprehens ive
R e
st ruct
Ġab und
Ġwind ow
M y
Ġst ored
Ġimpro ving
Ġagree ment
ĠP ers
Ġprot ocol
Ġpl ate
Ġsupp lement
im er
Ġsu itable
hem ical
Ġdi verse
ĠP ower
olester ol
Ġread ers
Ġcl oud
Ġle af
Ġto w
app ing
ĠCanad ian
Ġrest rict
le ments
Ġph r
g ent
Ġmin im
ĠS l
ĠB ro
Ġt al
Ġd ust
Ġrem aining
ab its
Ġact s
es ter
l ast
Ġg ather
act s
h ist
ob e
Ġrout ine
ot he
ĠRe view
ĠComm on
Ġmar ine
as er
Ġland s
Ġg al
ĠG ood
Ġass istance
Ġequ ival
ro t
Ġcop y
Ġ198 0
Ġapp rec
C T
um s
Ġm useum
ĠC are
Ġinj uries
if ies
th rop
ĠA tt
Ġf illed
ĠPro v
Ġt ail
be ing
Ġbat tery
Ġs ell
Ġar ms
ht m
Ġch art
et t
ĠAb out
4 9
and a
Ġind eed
Ġdisc ipl
Ġtro ops
Ġexpress ed
Ġdoct ors
Ġa x
Ġslow ly
b orn
or ter
ĠI d
Ġb an
Ġgener ated
lud ing
Ġsurv ive
ĠO F
Ġadminist ration
in i
ĠUS A
Ġt iny
Ġfail ed
as ive
Ġsequ ence
Ġcour ses
Ġhapp y
Ġsur f
Ġst omach
Ġeng age
Ġcult iv
Ġstart s
Ġ199 8
Ġbro ken
S e
Ġcar s
Ġaccount s
al ysis
Ġ Î
Ġdec ade
ĠN ations
Ġsch olars
Ġsp orts
Ġint ellect
Ġs od
ĠProf essor
Ġansw ers
Ġtw ice
Ġd ream
Ġharm ful
ĠT or
Ġbenef icial
Ġd ensity
u nder
Ġshe ll
ans ion
Ġim per
ĠAn y
ĠAn n
z en
Ġswe et
Ġext ended
Ġsee ing
Ġun known
if orm
7 7
ic ians
R ead
ar ia
Ġtrans ition
Ġre ject
Ġaff ord
og ue
Ġw aves
Ġrem ote
ĠP eter
Ġsw itch
ere nt
Ġobt ain
Ġtell s
Ġw ww
Ġac celer
ĠTh ose
n y
Ġcho ices
Ġder ived
n o
Ġdo or
Ġcreat es
Ġopen ing
m ary
k i
Ġmain tenance
Ġsol ve
ĠIS BN
ĠJose ph
ĠI ll
Ġmole cules
Ġc atch
le ts
Ġelect ronic
rib ed
Ġed ge
f rom
Ġdec ide
in ction
Ġ5 00
ĠEx pl
ĠG old
Ġprodu ces
U R
Ġer ror
Ġdoub t
re land
ĠL eg
h ma
in ity
Ġhealth care
or row
Ġopp osite
Ġm ur
ce ived
us ing
Ġdep os
Ġw ants
ind er
Ġconsist ent
Ġinter vention
it t
Ġcrit ic
C ont
ĠFr ank
Ġ18 9
Ġth or
Ġ3 00
St ud
Ġa er
Ġp ull
ĠY et
Ġjour ney
ct ive
Ġstudy ing
ĠPar is
Ġpl ays
Ġen vironments
ĠD an
Ġsuccess fully
ĠB re
Ġcircumst ances
ĠR ad
Ġcomp osition
ĠV ict
Ġfoss il
ĠOn ly
Ġchild hood
e er
b ody
Ġsk y
Ġa f
Ġla un
Ġprinc ip
ĠDise ase
E P
ig ation
ĠAustral ian
Ġloc ations
Ġprofession als
Ġsk ill
u a
ĠRep ort
Ġfound ation
C an
ĠTh rough
. âĢĻ
Ġlabor atory
ar ant
ink ing
Ġtru ly
Ġb io
Ġstrugg le
Ġgreat ly
le vel
b ut
Ġf ly
Ġfram ework
ash ion
Ġsign als
Ġmechan ism
us al
Ġmark ed
r ine
Ġen able
Ġcult ures
ĠSt reet
Ġdifficult y
Ġsh aring
en a
Ġout l
ĠF e
Ġaud ience
w o
iox ide
Ġorgan ized
ĠCommit tee
Ġfix ed
Ġrat io
S ince
Ġman aged
Ġcalc ium
Ġvessel s
Ġinsect s
Ġtrans mission
Ã ¼
Ġrespons es
Ġdesc ription
i very
Ġimplement ation
Ġfl av
Ġinstit ution
Ġgra v
Ġdeb ate
Ġperman ent
Ġindic ates
Ġun s
in ating
it ative
Ġl ots
t age
E n
ific ations
oc racy
Ġ197 0
Ġw ish
ĠR ome
ĠSc ot
um es
Ġdestroy ed
Ġdown load
Ġphilos ophy
a ud
Ġauthor ities
I L
itud es
ĠL ong
Ġwalk ing
ĠH all
Ġalg orith
Ġrepl aced
Ġy ield
ĠK h
r ont
Ġcare fully
Ġatt end
ĠI N
Ġtra um
Ġf iber
ĠCl in
Ġopt im
Ġbe ar
Ġmix ed
Ġcomp r
ĠI reland
w ing
ĠCh ic
Ġult imately
ĠGl obal
Ġrepresent ed
e per
ĠN atural
Ġun p
Ġcol our
Ġhyd rogen
Ġac ids
Ġw itness
Ġconvent ional
Ġconsum ers
ĠDes ign
ĠA I
Ġlim its
Ġra w
Ġeth nic
ĠM ad
Ġarr ived
Ġh us
k es
ste in
cy cl
Ġc art
ĠSt at
it an
z il
ĠIt aly
Ġnew sp
Ġag ency
Ġinteract ion
ic ide
ĠL ab
Americ an
Ġmagn etic
Ġd aughter
ĠO cean
ĠC ult
Ġgl uc
Ġded icated
ĠStud y
ac ing
g ans
ce l
Ġd in
Ġbo ost
on ia
Ġimmedi ate
rib e
Ġun able
ĠH aw
Ġyoung er
Ġsent ence
Ġthous and
Ġcor n
h and
ĠSou thern
Ġnecess arily
Ġres erv
ĠAd minist
Ġn erve
ĠC amp
Ġn ine
Ġsh ift
ipp ing
Ġs ight
ell ed
h op
ĠO h
Ġfound ed
Ġconstit ution
ter ing
Ġf asc
ĠP ub
Ġhand le
b our
ĠSt ep
Ġcolle agues
int s
Ġpurch ase
ĠEx p
Ġro of
ap ed
Ġrem ark
Ġg one
t hen
at al
Ġorgan isms
Ġen ds
Ġdes ire
âĢĻ ,
Ġfew er
ĠB ank
Ġch olesterol
g u
B l
Ġreg ul
Ġfeed ing
is ters
Ġlifest yle
Ġsh ips
ri ers
iz er
Ġ18 5
Ġbig gest
Ġelect ron
ĠC op
r ating
Ġclos er
Ġm ac
f ish
Ġpre val
Ġv oc
ĠE xt
Ġcirc uit
r us
Ġcoff ee
F igure
c her
w ord
Ġac know
he ast
Ġex ists
Ġsuppl ies
iction ary
Ġsupport ing
Ġcam era
Ġwrit er
f ortunately
Ġsupport s
ir ation
Ġfight ing
Ġno ise
ĠS ol
Ġterrit ory
ab ul
t ra
ĠEx per
se y
Ġcompar ison
Ġ199 7
ĠW he
Ġread er
Ġacc um
Ġpers ist
Ġe ld
Ġin hib
Ġpar alle
Ġcom ments
br idge
ĠP M
Ġlist en
Ġhigh light
Ġch osen
Ġeas tern
ĠN orthern
Ġunder lying
ĠVal ley
Ġd ioxide
ĠAcad emy
Ġf abric
it a
ir ty
om ic
Ġreg ulations
Ġhe m
ĠFore st
ĠM a
Ġc os
Ġun us
r d
Ġphot ograph
Ġla unch
ant a
Ġtw enty
Ġmar ried
Ġte a
Ġm ild
Ġh abits
ĠI P
ĠRich ard
ir ds
ĠRev olution
ĠSc ott
z ed
6 6
oc y
Ġne ck
Ġsuc ceed
Â ·
I P
Ġch rom
k ins
Ġin ner
ĠCarol ina
âĢ ĺ
Ġcommun icate
az ing
Ġjo in
Ġocc asion
Ġstand s
rit ing
Ġtransport ation
st ract
Ġmechan isms
ĠR oyal
Ġarchitect ure
c alled
Ġd ent
Ġbreat hing
Ġcont ained
Ġres olution
ĠE nd
Ġt ank
ĠF orm
B S
ĠV is
L e
Ġal le
Ġover l
Ġf ract
Ġmult i
Ġour selves
Ġb rand
ear chers
Ġf alse
Ġcl ust
Ġreg ist
D P
ĠW ood
Ġparticip ate
Ġhyp othes
t op
Ġpr on
Ġeval uation
ro vers
Ġb read
P e
M L
Ġpercent age
Ġemot ions
ĠM ag
ĠS k
Ġv ote
4 2
Ġstand ing
Ġobserv ations
ell a
Ġbehavi ors
Ġun iversity
Ġhous ing
Ġimprove ment
Ġatt ached
ĠCan cer
ĠSp ain
ĠF ort
Ġmach ines
ĠG al
Ġe pid
s uch
Ġacc ident
Ġvulner able
Ġrecogn ition
Ġdraw ing
Ġcont amin
i h
Ġvari able
ut s
Ġconc rete
ĠEmp ire
Ġrel ax
Ġadminist r
ĠH ome
Ġestim ates
ph one
ot ion
Ġr id
ĠCol or
h av
ĠG et
Ġresult ed
ĠSc iences
ut er
Ġinstruct ions
c omm
Ġfe ver
Ġt all
Ġhor iz
Ġne ur
Ġz one
Ġgre w
ĠA S
Ġequival ent
Ã ³
ĠC a
ut ch
Ġ199 6
Ġcut ting
Ġt aste
Ġinstru ments
st one
Ġwh atever
Ġ196 0
Ġb order
C D
Ġgreen house
Ġart ificial
ct or
est ed
ĠM ill
te en
ĠAd d
Ġturn s
Ġp up
Ġr hy
ĠR ob
Ġc row
Ġcomp ounds
Ġwhere as
rodu ction
Ġtra ined
Ġsh op
Ġris ing
Ġfeed back
ic on
s ue
Ġprogram ming
Ġknow s
Ġwill ing
ĠBo ard
or ous
ĠD et
ĠAg ricult
Ġsub s
dition al
L et
Ġk it
M ed
Ġve ter
Ġdemonstr ated
Ġm aps
ia h
Ġdel ay
ĠP enn
Ġsh ot
Ġm eth
Ġc ats
st ruction
Ġhe ro
Ġlay ers
or a
edi atric
Ġemploy ment
Ġser ver
Ġpre v
ĠE th
Ġl ies
Ġm ent
Ġm ice
ĠP an
ĠB rown
Ġjo ined
Ġref uge
t ic
Ġfunction al
Ġdiagn osed
Ġst roke
Ġiss ued
Ġth y
Ġsupp osed
ir atory
Ġconf idence
Ġa head
Ġtr ials
Ġpow ers
Ġpro ve
Ġsm oking
Ġleg s
Ġre cept
Ġent ry
ĠC ap
Ġrel ation
Ġst able
ĠT ime
Ġindepend ence
ĠT imes
Ġfl o
Ġdemonstr ate
wh ile
Ġgu arant
Ġgener ations
Ġro w
7 9
ab led
x ts
ure au
ag on
Ġmed ic
we ight
Ġob esity
ir t
Ġcapt ure
ors es
ult s
4 3
0 5
Ġsubst ances
Ġmem br
Ġcon clusion
Ġf u
I nt
Ġdeb t
Ġ3 6
Ġc m
Ġdef e
Ġdist ur
Ġdep artment
Ġreact ions
Ġobject ive
Ġz ero
u h
c ons
e en
rit is
ign ed
is k
Ġfrequ ent
Ġnear by
ar n
Ġexam ine
Ġa th
Ġpresent ation
ĠChic ago
Ġexpl o
0 1
Ġa stronom
Ġcompet ition
p et
and on
ĠIt alian
Ġins urance
Ġm and
Ġob lig
ain e
it ivity
ĠN ative
Ã ¶
esp read
ĠIr ish
Ġfund s
ĠMich ael
Ġr u
ov en
Ġp air
Ġb ot
ic ious
8 8
he red
I R
Ġconn ections
Ġcustom ers
Ġpsych ological
ever al
as ters
od ing
Ġdel ivery
Ġsh ut
Ġprom pt
ploy ment
Ġsc ript
pl ant
L ear
Ġle ct
ĠG ard
u ps
ĠâĢ ¢
Ġte en
Ġcr ime
Ġpart ner
ĠP ract
al a
Ġso le
Ġmat ters
us iness
Ġp ool
O C
igh ter
et her
Ġshe et
Ġbelief s
anc hes
Ġemploy ed
oc c
e enth
Ġ199 5
Ġp ra
in ally
Ġdef ine
4 1
es is
Ġcar b
Ġmod e
Ġch ick
Ġcount y
Ġvirt ual
ĠCl imate
Ġphys ics
er ior
ĠF ree
u gh
h ow
Ġh ur
Ġpolit ics
ĠW ik
O f
Ġinteract ions
ak ed
Ġr ice
et ime
I A
it tle
ĠE astern
g ov
Y our
ur rent
Ġsp ok
Ġlaun ched
Ġarr ange
ym ph
hes is
Ġsur ve
R ec
Ġpos itions
Ġsw im
ap h
Ġp apers
os ion
y les
Ġag reed
Ġexp ansion
Ġman if
ĠKe ep
Ġ7 5
ree k
ite ly
ĠGu ide
Ġparticip ation
N ot
Ġcateg ories
ĠH oly
Ġstim ul
Ġlegis lation
Ġfl ag
ear ing
Ġinvol ving
az ine
Ġb iod
Ġoper ate
Ġpo ison
Ġmark ets
Ġme al
ĠS ing
Ġc av
Ġh olid
it ter
Ġwas n
ish ment
Ġunder t
L A
Ġins ulin
F irst
rain ing
Ġexplan ation
Ġn one
Ġtiss ues
Ġmat ch
Ġfor th
Ġr ivers
Ġput ting
ĠII I
sc ale
et ics
Ġconsum er
m es
ad ing
Ġsm oke
Ġkid ney
Ġh ole
ĠBra zil
Ġsp ending
% )
ĠW here
Ġmic ros
p an
O ver
el ess
ĠGe org
all s
ĠEar ly
Ġg ap
y th
Ġmet ers
ĠH ave
Ġneg ot
Ġdo i
Ġdecl ared
Ġt ons
ĠInd ians
ĠServ ices
Ġbr idge
Ġus age
Ġte xts
ĠA ccess
Ġappro ved
Q u
Ġadequ ate
cycl op
Ġlegis l
n ect
ĠKing dom
Ġelect ro
ĠL anguage
Ġest imate
Ġpain ting
Ġfram e
um ps
Ġre ven
Ġr ig
Ġdra wn
Ġne ither
Ġsett ings
Ġb low
Ġ3 2
Ġmeasure ments
Ġsc ene
Ġdang er
Ġtri p
ĠD iff
ent ed
Ġmaint aining
Ġbut ter
Ġstr ing
ĠVict or
Ġassoci ation
r ial
Ġn ob
Ġc ards
Ġs ections
Ġc up
Ġwid espread
Ġpass age
Ġf old
us hed
Ġco vers
Ġ15 0
Ġdep art
Ġa ward
Ġâ Ĩ
Ġcry st
Ġend ed
Ġinstall ed
Ġcommit ted
ĠP rop
Ġgluc ose
ib l
Ġrun s
Ġindust ries
Ġor ient
Ġdest ruction
Ġdam aged
Ġbab ies
Ġbl ocks
c ar
Ġbur ning
Ġbreat h
I G
ĠE ss
Ġst reet
ĠC reat
Ġcontrol s
op les
Ġfor get
Ġconstruct ed
Ġhold s
ĠAtl antic
oura ge
Ġrel iable
du le
Ġinteg rated
Ġcent re
Ġrece iving
ĠM er
Ġph arm
Ġvirus es
Ġsome what
Ġs ke
Ġen emy
f it
Ġf urn
Ġevery day
el esc
ĠD ar
Ġv ac
ir us
Ġrout e
Ġor gans
ĠSt r
Ġdiv ision
ID S
Ġent ered
Ġplay ers
Ġon going
8 5
Ġr ank
Ġhistor ic
Ġcont rovers
Ġhold ing
Ġm m
Ġm ales
Ġsm ooth
Ġcoast al
ut rition
Ġindic ated
V ID
ex ample
Ġcol umn
Ġearth qu
or ph
S S
Ġsh if
7 1
Ġb anks
Ġrel ief
Ġman ip
os c
Ġaccess ible
ult y
Ġintellect ual
Ġbo ys
Ġdoll ars
h tt
Ġcomp osed
p es
s he
Ġstrong ly
Ġchalleng ing
Ġrep air
Ġvol tage
g ical
Ġf er
Ġmin ing
Ġbr ings
Ġpublic ation
he rent
Ġf ashion
Ġmin erals
Ġab andon
D on
it amin
Ġmiss ing
Ġrecommend ations
Ġart ists
Ġhon or
e ers
oc ation
r ite
Ġout bre
Ġcon ven
Ġvict ims
Ġvol can
ident ial
Ġst re
Ġm os
Ġcent ers
Ġann ounced
y al
Ġb ond
____ ____
Ġm ood
Ġfac ility
Ġcateg ory
Ġele ction
O L
Ġn est
ĠA ge
E ven
Ġt ight
Ġb oy
r ane
Ġexerc ises
Ġsac r
ig an
Ġmicro b
ost on
Ġtrou ble
Ġv s
Ġh un
ins on
id ity
Ġful f
an o
Ġk ne
ĠM D
Ġmeasure ment
ĠS il
Ġfem ales
Ġp ounds
Ġwa it
Ġredu ces
Ġ6 5
Ġseem ed
Ġpregn ant
Ġphot o
st s
ir al
Ġint ense
Ġcomp are
Ġevalu ate
Ġ ille
Ġask ing
ĠC re
g ers
he nt
op eration
ĠB ab
ĠV iet
I M
ĠP op
Ġwor ry
i ability
O nce
Ġreal ize
o ir
ĠY ear
Ġproport ion
Ġpar as
Ġdesign s
Ġnerv ous
Ġsatell ite
Ġw ound
Ġrenew able
Ġf ro
Ġthe ories
Ġcrit eria
ĠFam ily
ĠRes ources
ĠPart y
ĠH ill
ap se
Ġmoist ure
Ġsil ver
Ġthe ore
Ġmere ly
Ġexam ination
ĠA cc
Ġcollabor ation
acc o
ars h
Ġtra ct
abul ary
Ġpl us
C A
Ġprepar ation
ad ed
Ġbl ind
ĠE U
g reg
Ġear n
Ġoff ering
an i
Ġcal ories
m aking
Ġconstant ly
ĠAd v
g s
he alth
Ġrespect ively
ĠD ig
ro oms
R A
Ġcomm ission
r ary
Ġg ram
Ġmaint ained
Ġwith d
Ġfavor ite
ĠA gency
Ġmetab ol
ĠB ig
th ritis
% .
i ological
Ġsee king
Ġs ought
Ġparalle l
Ġhus band
Ġtur ning
ĠT ake
air y
Ġeng aged
Ġdist ributed
ĠDist rict
Ġad vert
ĠS up
ĠC y
M e
Ġr ing
am ins
ĠOx ford
Ġsignific ance
ĠE qu
ĠR om
ĠMart in
Ġout come
Ġab normal
Ġaccur acy
ive red
Ġt ub
Ġunc ertain
al m
B ecause
Ġmole cular
Ġag ents
Ġre ly
Ġsign ed
Ġpro hib
Ġro cks
Ġd ys
ast y
onom y
Ġinf ect
7 3
Ġt ube
her ic
Ġlov ed
Ġfor g
Ġsp aces
Ġp ed
ro at
ĠT V
ĠZ eal
n et
ĠTe ac
ĠChrist mas
Ġb ath
Ġbe ings
6 8
re y
Ġro les
Ġweap ons
Ġint est
Ġsurf aces
is dom
ĠL ist
es ides
Ġtrans p
Ġmechan ical
ol esc
ĠSpec ial
Ġopp osed
Ġfarm ing
Ġ Ð
Ġbre eding
Ġthan ks
ren cy
Ġsc an
Ġbi ology
Ġinfluen ced
C E
U T
Ġst rict
s is
Ġar rest
Ġdis char
Ġfour th
Ġvari ables
ail ed
ĠBe fore
Ġarch ae
Ġis lands
ĠPl ant
ĠL ib
Ġcompl icated
Ġrare ly
ad y
Ġpl enty
ĠHe b
Ġar ts
Ġ199 4
Ġfac ing
Ġbeaut y
Ġesc ape
ĠN az
Ġdepend ent
ĠE ffect
ĠW ord
Ġinf ant
Ġart ist
Ġmort ality
omm od
Ġmess ages
Ġprevent ing
Ġfair ly
Ġprincip al
Ġcapt ured
' m
Ġjud ge
ĠAdminist ration
ĠA P
Ġdet ection
ask a
Ġcontem porary
ab b
Ġcirc le
per or
hy d
ĠA ND
ord ers
Ġserv ing
C H
ĠP olic
Ġess entially
Ġpro of
Ġguid ance
ĠS at
Ġconvers ation
row ing
ĠTh ough
Ġcare ful
Ġsubsequ ent
Ġac ute
Ġed ition
Ġmathemat ics
force ment
Ġtem ple
Ġattempt s
Ġdef ect
Ġconsider able
O r
est ion
Ġdis aster
Ġdom ain
Ġcre w
ĠZeal and
Ġsc ore
Ġingred ients
ip edia
Ġown er
qu it
ian a
ort ion
Ġin her
Ġtown s
ol n
Ġencoura ged
ĠS ometimes
ĠAs ian
E very
Ġj ump
Ġpro ceed
ot ton
Ġmov es
Ġgradu ally
Ġbring ing
os h
Ġcr im
Ġphenomen on
Ġcarry ing
Ġang le
ĠF ace
Ġir rit
Ġm ixt
Ġanal ys
7 4
Ġpe ak
ol ving
ere n
Ġcl othing
Ġs ession
Ġdef ense
he imer
a ired
ĠCh ange
ĠOp en
ĠM el
Ġdes ired
Ġdiscrim ination
Ġconsid ering
Ġvisit ors
ru ption
Ġimplement ed
Ġra b
Ġcomb at
Ġdo se
ĠSec ret
Ġprov ed
Ġphot os
Ġstat istics
Ġit em
Ġshar p
Ġoffic ers
Ġ id
Ġadvant ages
Ġthem e
Ġsh ock
ĠH y
b ra
am ine
vent ions
Ġinc red
ĠMore over
am ination
el i
Ġn ose
inc luding
Ġin n
ĠR ock
Ġex clus
Ġprov en
m edi
ĠP lease
Ġsecond s
ĠP et
Ġconfirm ed
it als
Ġgal ax
o om
ĠPr inc
Ġpan el
N S
Ġl ie
ill a
Ġh orses
ollow ing
Ġev il
ĠE p
Ġform ula
7 2
lish ing
Ġinterp re
v a
Ġabs ence
the less
an ing
pl ing
Ġem pt
Ġinterpret ation
ĠT op
Ġcor rel
Ġast hma
Ġche st
Ġ19 50
ĠYou ng
A m
Ġhe ating
Ġclaim ed
ĠMus lim
ĠM S
Ġstrong er
T oday
Ġimpl ications
Ġnew ly
Ġsl a
Ġcop per
ĠChe ck
en ess
Ġmin ute
Ġdel ivered
ĠCommun ity
ĠWh o
ĠAng el
Ġbr anches
Ġbr anch
Ġins ert
ĠCent re
ĠFurther more
s m
Ġexperim ental
Ġeffect iveness
Ġd rain
Ġf ed
H D
Ġa ims
ric ts
ĠColumb ia
Ġpass ing
Ġde aling
v ard
Ġs ales
Ġpres ents
Ġspect rum
Ġunivers al
ist ical
p rodu
Ġsurpr ising
Ġr oughly
out s
ĠScot land
ren e
il ation
ag ram
Ġ4 00
Ġplan ned
ĠB ill
Ġprint ed
Ġexcess ive
b ar
ĠDirect or
Ġinform ed
Ġdifficult ies
Ġch lor
Ġre ward
ĠG rand
pt ions
rou s
Ġwrit ers
Ġfall s
Ġvar ieties
ĠAm ong
E d
Ġla id
ook ing
og ether
ĠSw ed
oh yd
at ial
ĠSec urity
ak istan
Ġunus ual
ad der
Ġplan e
Ġfocus es
Ġscreen ing
Ġlight s
ĠD en
Ġequ ally
Ġimag ine
Ġsla very
Ġresp iratory
Ġtarget s
cl ass
Ġshap es
ĠB oston
ĠJ ac
Ġover w
N ote
Ġord ered
ĠN on
Ġfish ing
ĠM oon
ĠW all
Ġl ake
ĠP o
Ġelect ed
Ġfin ished
v in
Ġsou l
Ġteam s
Ġremov al
Ġm old
Ġmod ified
Ġconcer ning
Ġrem ed
Ġw ine
ov ascular
Ġo v
Ġcharacter ized
t les
Ġassign ed
8 9
Ġknow ing
Ġneighbor hood
6 9
Ġer rors
act ion
Ġch am
ual ity
isc o
ĠF our
ĠInd ust
Ġrad ical
ro x
ĠD ou
ĠM en
Ġprom inent
am ing
Ġass ume
em ia
Ġg ained
Ġtreat ing
Ġt ut
Ġlearn ers
Ġhaz ard
ĠV er
Ġscient ist
Ġsubstant ial
ĠR esp
Ġhorm one
Ġex ceed
im a
ha ust
Ġro ads
Ġgu ard
Ġfil ter
Ġph osph
U N
Ġsuff ered
Ġmin eral
Ġst ead
Ġdec or
b les
ĠD espite
S u
Ġcomp ens
Ġobs erve
Ġp estic
Ġcomfort able
Ġus ual
Ġhapp ening
Ġout er
ĠDo es
ĠW orks
re ated
ĠOh io
Ġsp in
inc oln
Ġexcept ion
ĠNet work
Ġkil omet
Ġexam ined
Ġsl aves
i at
Ġint ent
Ġra cial
ĠF und
Ġt on
Ġcl ar
Ġhe aling
Ġed itor
C omm
Ġinvestig ation
ri z
ou nce
ange red
Ġtur b
Ġbre ed
Ġsatis f
o ids
Ġst uff
og rap
Ġ199 2
Ġdem ands
ont al
un icip
Ġfl our
Ġtele vision
C omp
Ġcon qu
Ġdef end
ab eth
van ia
ĠFin ally
uck y
ĠC ast
re qu
Ġwar ning
Ġcook ing
ult ane
Ġb omb
ra v
Ġt ropical
Ġclean ing
ĠCo ast
p d
Ġinit ially
ans as
Ġelimin ate
Ġd ates
Ġtrig ger
Ġde eper
ot ype
or ic
Ġg ut
Ġgra in
Ġflow er
ost ic
ĠWind ows
Ġfun g
6 4
e ffect
ĠAd ditionally
j ust
Ġphysic ian
Ġident ification
ĠChrist ians
Ġearl iest
Ġdecre ased
Ġrem ind
Ġev olved
ĠG r
Ġim aging
ut en
Ġacc ommod
Ġstruct ural
ag raph
Ġst ores
og a
Ġnit rogen
Ġvar iation
m od
Ġrec over
Ġor bit
ĠF igure
Ġcor ner
Ġisol ated
Ġtrad itions
Ġconsider ation
Ġg ro
r ance
ĠSup reme
Ġdet ected
Ġbig ger
M P
Ġliter acy
Ġcomp ound
Ġstate ments
htm l
Ġsen ior
Ġserv es
as ant
âĢ ł
Ġgr id
Ġad m
ĠMin ister
Ġthreat s
ĠL ow
ĠEngine ering
Ġun w
Ġdiam eter
ust ain
sy l
Ġmay be
ort ed
Ġp it
oun ter
ĠV en
Ġmar ks
Ġsuper ior
Ġcrim inal
Ġconclud ed
Ġprovid er
erson al
Ġgrant ed
i ary
ĠJohn son
Ġfac ed
ess ions
ĠSu per
com ing
ou red
Ġst ations
Ġtrend s
Ġinnov ation
ig ue
arent s
Ġbi om
Ġam azing
Ġadd s
ict ed
Ġbr ush
ri end
Ġconf erence
ĠTh ree
Ġdr iven
Ġh oles
ative ly
Ġsl ave
ra ys
Ġconf ig
Ġc aught
E E
se mb
ĠT im
ist ed
et ary
iox id
S he
Ġter ror
Ġ4 8
Ġh oney
ish op
Ġar ray
Ġheav ily
Ġd rought
ĠS und
Ġro se
ĠE r
pr int
? "
Ġsc ar
Ġany where
Ġsub t
Ġep is
ĠJe ff
g ence
ĠM ethod
z heimer
Ġaccomp an
Ġf est
Ġun ion
Ġal ter
ot al
Ġpl ot
M A
ĠI ran
ĠL ar
Ġcompl ications
se ll
ĠHeb rew
P er
Ġen orm
0 6
Ġac res
Ġvide os
ĠCO VID
Ġflow s
c hen
Ġspl it
et te
ĠS ir
Ġh osp
Ġc ash
C P
m m
f ts
Ġb rows
Ġcon j
Ġmeas uring
Ġcorrect ly
Ġconsum e
E ar
it ual
ĠN ever
Ġtrans lation
ĠSaf ety
Ġdirect ed
ĠS ar
Ġlist ening
Ġprint ing
Ġper ception
Pe ople
Ġsche dule
Ġwors hip
Ġmount ains
Ġplay er
Ġind igenous
Ġas c
ĠU r
Ġdis abilities
Ġsp ort
Ã ¢
Ġc ort
Ġwind ows
ic y
ĠSur vey
ĠS ign
ĠB ul
ĠT re
Ġdynam ic
ĠOrgan ization
Ġper m
Ġobserv ation
op es
erc ury
a o
ĠL ead
ĠE st
Ġm g
Ġ3 8
ic ing
Ġantibiot ics
Ġchann el
Ġp in
ĠP en
elf are
on ym
EN T
Ġcere mon
usal em
Ġemphas is
ed u
Ġfind s
Ġ199 3
Ġco verage
Ġbacter ial
Ġcat tle
ĠN ov
Ġinsp ired
n ight
Ġpe oples
ĠL iter
Ġmus ical
ĠP akistan
ur a
Ġy e
qu ar
ĠM ult
use t
ograph ical
so ft
Ġpre ced
ĠP ot
ĠAut hor
syl vania
Ġdis rupt
fore st
Ġwrit es
Ġreve al
it arian
ud e
Ġhe nce
ĠIn s
ass es
Ġreg ulation
Ġinh abit
Ġdut y
Ġst ability
Ġoccur ring
Ġobject ives
ĠJ ul
Ġold est
ĠSim ilar
Ġam pl
Ġstreng then
Ġm ine
m ers
Ġautom atically
it ure
Ġwor st
oc ial
ĠKore a
Ġsun light
roll ed
Ġpo em
Ġint ensity
Ġhead s
all ow
Ġsit ting
Ġn ice
ĠDiv ision
Ġprocess ed
C ol
uset ts
Ab out
ogen ic
ĠC ell
ild ren
Ġag ent
ach usetts
d ef
Ġt ables
e ut
Ġover come
Ġview ed
Ġwhe at
Ġtax es
Ġcont ribution
Ġre aching
Ġsus cept
Ġag ed
Ġacqu ired
cyclop edia
iz abeth
Ġ199 1
0 2
ĠFor ce
er ly
Ġregard ed
Ġdiet ary
Ġwhe el
ĠEd ward
ic ular
Ġun iform
Ġvoc abulary
ĠCons ervation
Ġtum or
ple te
A pp
5 9
Ġcommit ment
Ġg iant
Ġpol ar
re ction
Ġidentify ing
Ġfunction ing
0 9
ĠSt ar
ĠC ross
C R
Ġcontribut ed
ad el
ĠCam bridge
Ġ vel
ĠK ar
Ġgrow s
Ġprotect ing
ĠO per
Ġst rain
Ġ )
ail able
0 8
Ġcall ing
ĠPre vention
Ġv an
Ġinter face
0 3
ert y
ĠNe u
Ġcool ing
Ġaddress ed
Ġ3 3
re al
Ġsu p
P r
ĠCol l
Ġrel ie
Ġal ph
Ġcons erv
ĠDe v
Ġquar ter
Ġaut ism
om er
ĠL incoln
ĠProt ection
ir th
ĠT able
Ġrepresent ation
ie val
al i
Ġg ases
ĠH ospital
y er
Ġmod erate
Ġdri ver
ĠT ype
Ġcoun sel
og s
Ġengine ers
Ġex haust
Ġdes ert
Ġdec ay
Ġappoint ed
at hered
Ġab ilities
cent ury
Ġ ;
ĠL o
en ger
Ġath let
ĠCur rent
ĠN ote
our se
ĠQue en
ĠF ather
qu ir
ig ate
Ġsens itivity
ĠRead ing
ep ing
5 8
Ġr ational
ĠD O
ĠJ o
Ġexperien cing
M ay
ĠM ah
ĠLear n
-- --
Ġad verse
Ġcover ing
Ġregard less
A A
ĠS et
Ġl aser
Ġfat ty
az on
Ġl es
Ġst ake
P re
Ġext end
Ġmathemat ical
Ġvit amins
aw s
Ġqu iet
Ġbe es
ĠGeorg ia
Ġaut hent
Ġther mal
d oor
l ines
Ġme als
Ġsepar ated
H A
ĠMich igan
ĠL ee
he a
