{"!":0,"\"":1,"#":2,"$":3,"%":4,"&":5,"'":6,"(":7,")":8,"*":9,"+":10,",":11,"-":12,".":13,"/":14,"0":15,"1":16,"2":17,"3":18,"4":19,"5":20,"6":21,"7":22,"8":23,"9":24,":":25,";":26,"<":27,"=":28,">":29,"?":30,"@":31,"A":32,"B":33,"C":34,"D":35,"E":36,"F":37,"G":38,"H":39,"I":40,"J":41,"K":42,"L":43,"M":44,"N":45,"O":46,"P":47,"Q":48,"R":49,"S":50,"T":51,"U":52,"V":53,"W":54,"X":55,"Y":56,"Z":57,"[":58,"\\":59,"]":60,"^":61,"_":62,"`":63,"a":64,"b":65,"c":66,"d":67,"e":68,"f":69,"g":70,"h":71,"i":72,"j":73,"k":74,"l":75,"m":76,"n":77,"o":78,"p":79,"q":80,"r":81,"s":82,"t":83,"u":84,"v":85,"w":86,"x":87,"y":88,"z":89,"{":90,"|":91,"}":92,"~":93,"¡":94,"¢":95,"£":96,"¤":97,"¥":98,"¦":99,"§":100,"¨":101,"©":102,"ª":103,"«":104,"¬":105,"®":106,"¯":107,"°":108,"±":109,"²":110,"³":111,"´":112,"µ":113,"¶":114,"·":115,"¸":116,"¹":117,"º":118,"»":119,"¼":120,"½":121,"¾":122,"¿":123,"À":124,"Á":125,"Â":126,"Ã":127,"Ä":128,"Å":129,"Æ":130,"Ç":131,"È":132,"É":133,"Ê":134,"Ë":135,"Ì":136,"Í":137,"Î":138,"Ï":139,"Ð":140,"Ñ":141,"Ò":142,"Ó":143,"Ô":144,"Õ":145,"Ö":146,"×":147,"Ø":148,"Ù":149,"Ú":150,"Û":151,"Ü":152,"Ý":153,"Þ":154,"ß":155,"à":156,"á":157,"â":158,"ã":159,"ä":160,"å":161,"æ":162,"ç":163,"è":164,"é":165,"ê":166,"ë":167,"ì":168,"í":169,"î":170,"ï":171,"ð":172,"ñ":173,"ò":174,"ó":175,"ô":176,"õ":177,"ö":178,"÷":179,"ø":180,"ù":181,"ú":182,"û":183,"ü":184,"ý":185,"þ":186,"ÿ":187,"Ā":188,"ā":189,"Ă":190,"ă":191,"Ą":192,"ą":193,"Ć":194,"ć":195,"Ĉ":196,"ĉ":197,"Ċ":198,"ċ":199,"Č":200,"č":201,"Ď":202,"ď":203,"Đ":204,"đ":205,"Ē":206,"ē":207,"Ĕ":208,"ĕ":209,"Ė":210,"ė":211,"Ę":212,"ę":213,"Ě":214,"ě":215,"Ĝ":216,"ĝ":217,"Ğ":218,"ğ":219,"Ġ":220,"ġ":221,"Ģ":222,"ģ":223,"Ĥ":224,"ĥ":225,"Ħ":226,"ħ":227,"Ĩ":228,"ĩ":229,"Ī":230,"ī":231,"Ĭ":232,"ĭ":233,"Į":234,"į":235,"İ":236,"ı":237,"Ĳ":238,"ĳ":239,"Ĵ":240,"ĵ":241,"Ķ":242,"ķ":243,"ĸ":244,"Ĺ":245,"ĺ":246,"Ļ":247,"ļ":248,"Ľ":249,"ľ":250,"Ŀ":251,"ŀ":252,"Ł":253,"ł":254,"Ń":255,"Ġt":256,"Ġa":257,"he":258,"in":259,"re":260,"Ġthe":261,"on":262,"er":263,"Ġo":264,"at":265,"Ġs":266,"en":267,"Ġc":268,"Ġw":269,"es":270,"is":271,"nd":272,"it":273,"or":274,"Ġp":275,"al":276,"Ġb":277,"ed":278,"Ġof":279,"an":280,"Ġf":281,"ing":282,"Ġin":283,"ou":284,"ar":285,"Ġm":286,"Ġand":287,"Ġto":288,"ic":289,"Ġd":290,"ion":291,"le":292,"ro":293,"as":294,"Ġh":295,"ent":296,"Ġth":297,"ct":298,"Ġe":299,"il":300,"Ġre":301,"om":302,"ve":303,"Ġl":304,"st":305,"Ġn":306,"ly":307,"Ġbe":308,"âĢ":309,"Ġis":310,"ĠT":311,"se":312,"ol":313,"Ġg":314,"ation":315,"im":316,"id":317,"et":318,"ut":319,"ce":320,"ot":321,"ur":322,"ch":323,"ra":324,"ow":325,"ĠA":326,"Ġfor":327,"ig":328,"ĠS":329,"Ġu":330,"Ġthat":331,"Ġon":332,"Ġst":333,"ver":334,"ĠC":335,"Ġy":336,"ĠI":337,"ir":338,"ul":339,"ay":340,"am":341,"Ġas":342,"ith":343,"el":344,"ad":345,"Ġpro":346,"her":347,"Ġare":348,"Ġcon":349,"Ġan":350,"Ġwith":351,"if":352,"Ġwh":353,"Ġyou":354,"Ġor":355,"Ġit":356,"Ġal":357,"ter":358,"od":359,"ĠM":360,"Ġ(":361,"ĠThe":362,"ment":363,"ge":364,"Ġ1":365,"ĠP":366,"th":367,"op":368,"ate":369,"ist":370,"ers":371,"Ġde":372,"ies":373,"ab":374,"ill":375,"Ġhe":376,"ess":377,"ĠB":378,"Ġex":379,"us":380,"Ġwe":381,"ore":382,"ect":383,"Ġcom":384,"Ġsu":385,"âĢĻ":386,"ity":387,"est":388,"res":389,"ac":390,"Ġha":391,"ive":392,"ĠH":393,"um":394,"rom":395,"ld":396,"os":397,"Ġv":398,"ke":399,"Ġby":400,"ant":401,"em":402,"qu":403,"iv":404,"ĠW":405,"ain":406,"nt":407,"Ġat":408,"pp":409,"igh":410,"ĠD":411,"Ġwas":412,"ud":413,"Ġcan":414,"ĠE":415,"Ġfrom":416,"and":417,"Ġch":418,"oc":419,"Ġr":420,"ĠR":421,"ort":422,"Ġne":423,"ĠF":424,"Ġse":425,"ial":426,"Ġ2":427,"ure":428,"Ġnot":429,"un":430,"ĠâĢ":431,"Ġle":432,"ical":433,"art":434,"ĠN":435,"ĠG":436,"Ġhave":437,"ri":438,"ĠL":439,"og":440,"Ġsh":441,"Ġen":442,"Ġsp":443,"Ġthis":444,"pt":445,"ight":446,"Ġab":447,"all":448,"rou":449,"ich":450,"red":451,"Ġwor":452,"00":453,"ould":454,"ther":455,"ost":456,"The":457,"ions":458,"our":459,"gh":460,"ome":461,"du":462,"ated":463,"Ġim":464,"ine":465,"Ġus":466,"per":467,"Ġpl":468,"ard":469,"out":470,"ag":471,"Ġtheir":472,"ell":473,"ide":474,"ff":475,"act":476,"ĠO":477,"Ġint":478,"pl":479,"ear":480,"ans":481,"ast":482,"age":483,"ak":484,"ust":485,"Ġwhich":486,"ĠJ":487,"ec":488,"Ġk":489,"Ġwhe":490,"Ġyour":491,"Ġthey":492,"ous":493,"iz":494,"ĠU":495,"ood":496,"Ġall":497,"Ġad":498,"ult":499,"ib":500,"ĠIn":501,"Ġcont":502,"Ġwill":503,"Ġinc":504,"end":505,"cc":506,"Ġdis":507,"ru":508,"ap":509,"Ġmore":510,"Ġcomp":511,"ong":512,"Ġres":513,"âĢĿ":514,"ia":515,"ew":516,"ip":517,"vel":518,"ations":519,"Ġhas":520,"ere":521,"so":522,"orm":523,"Ġdo":524,"ary":525,"ater":526,"ĠTh":527,"able":528,"ence":529,"are":530,"ild":531,"Ġman":532,"Ġother":533,"Ġcl":534,"ual":535,"Ġbut":536,"ks":537,"Ġwere":538,"ry":539,"ind":540,"ep":541,"Ġper":542,"ents":543,"Ġte":544,"Ġme":545,"Ġimp":546,"ĠâĢľ":547,"ach":548,"Ġalso":549,"Ġone":550,"ance":551,"'s":552,"ose":553,"reat":554,"ign":555,"ake":556,"Ġ19":557,"ress":558,"ass":559,"ase":560,"av":561,"au":562,"Ġso":563,"ction":564,"Ġj":565,"ition":566,"Ġout":567,"ice":568,"Ġun":569,"ber":570,"Ġar":571,"Ġapp":572,"one":573,"very":574,"ime":575,"Ġpart":576,"Ġabout":577,"ord":578,"Ġstud":579,"ens":580,"ace":581,"Ġev":582,"ount":583,"ish":584,"ory":585,"ĠSt":586,"ok":587,"ack":588,"ame":589,"ire":590,"Ġwho":591,").":592,"Ġinf":593,"Ġpe":594,"Ġhis":595,"Ġsy":596,"Ġcomm":597,"Ġsc":598,"ors":599,"ub":600,"ite":601,"ue":602,"Ġthem":603,"ang":604,"ces":605,"ĠK":606,"ike":607,"ound":608,"ree":609,"olog":610,"now":611,"Ġ\"":612,"Ġpre":613,"low":614,"Ġbec":615,"ĠIt":616,"Ġup":617,"ric":618,"Ġmay":619,"Ġthan":620,"ie":621,"ile":622,"iff":623,"Ġqu":624,"ople":625,"Ġyear":626,"Ġsome":627,"Ġrec":628,"ays":629,"ĠCh":630,"ates":631,"ail":632,"Ġbeen":633,"Ġwhen":634,"nder":635,"ings":636,"Ġthere":637,"ian":638,"mer":639,"Ġits":640,"ough":641,"Ġag":642,"ren":643,"Ġinto":644,"Ġgo":645,"Ġtime":646,"Ġtra":647,"ph":648,"vers":649,"Ġwork":650,"rit":651,"erv":652,"ĠThis":653,"te":654,"Ġ20":655,"Ġthese":656,"ons":657,"Ġover":658,"ĠV":659,"Ġpeople":660,"Ġdiff":661,"ally":662,"lud":663,"rough":664,"Ġhow":665,"ause":666,"Ġcons":667,"Ġuse":668,"Ġro":669,"ond":670,"Ġhad":671,"Ġcol":672,"Ġra":673,"tern":674,"ms":675,"ll":676,"Ġ3":677,"ific":678,"Ġtr":679,"ove":680,"Ġour":681,"Ġact":682,"Ġbet":683,"we":684,"Ġmost":685,"int":686,"irst":687,"ys":688,"alth":689,"ities":690,"Ġknow":691,"Ġlike":692,"Ġunder":693,"lic":694,"Ġbl":695,"ments":696,"ject":697,"Ġwould":698,"lect":699,"ĠY":700,"ious":701,"Ġdes":702,"Ġacc":703,"row":704,"ning":705,"ook":706,"Ġsa":707,"les":708,"velop":709,"Ġnew":710,"stem":711,"Ġtw":712,"Ġsuch":713,"Ġneed":714,"Ġrel":715,"ffect":716,"Ġif":717,"Ġrep":718,"ient":719,"ational":720,"Ġgen":721,"Ġinclud":722,"Ġany":723,"Ġchild":724,"Ġhel":725,"ob":726,"cess":727,"hed":728,"ple":729,"ative":730,"ular":731,"Ġused":732,"Ġpr":733,"ced":734,"Ġwhat":735,"Ġonly":736,"Ġhelp":737,"yp":738,"Ġprodu":739,"ool":740,"Ġph":741,"ating":742,"Ġno":743,"Ġprov":744,"ov":745,"Ġmany":746,"Ġind":747,"Ġam":748,"Ġdevelop":749,"ĠUn":750,"Ġfirst":751,"Ġoff":752,"),":753,"Ġspec":754,"Ġthrough":755,"Ġfe":756,"fter":757,"ath":758,"oss":759,"ise":760,"round":761,"Ġac":762,"ark":763,"uc":764,"ics":765,"Ġexp":766,"Ġreg":767,"iet":768,"Ġpo":769,"uring":770,"Ġem":771,"ne":772,"ful":773,"ts":774,"Ġtwo":775,"erm":776,"Ġsystem":777,"rib":778,"iss":779,"oth":780,"ink":781,"Ġdiffere":782,"ied":783,"Ġob":784,"eth":785,"hen":786,"rop":787,"old":788,"Ġdec":789,"als":790,"ility":791,"Ġass":792,"ible":793,"ased":794,"Ġatt":795,"ange":796,"Ġadd":797,"Ġsur":798,"ten":799,"Ġ-":800,"Ġshould":801,"ĠHe":802,"ures":803,"ĠâĢĵ":804,"arch":805,"ower":806,"ife":807,"fore":808,"In":809,"Ġwell":810,"ert":811,"Ġfl":812,"ble":813,"ween":814,"ng":815,"Ġwater":816,"Ġsupp":817,"ract":818,"ram":819,"Ġyears":820,"Ġrem":821,"Ġ201":822,"aw":823,"Ġsub":824,"own":825,"Ġinv":826,"Ġco":827,"ade":828,"Ġ200":829,"sel":830,"Ġ4":831,"gan":832,"ution":833,"Ġbetween":834,"Ġhealth":835,"Ġsm":836,"cy":837,"Ġcould":838,"hes":839,"Ġpres":840,"Ġhigh":841,"its":842,"ick":843,"Ġwhere":844,"ever":845,"uch":846,"Ġtrans":847,"wn":848,"ily":849,"Ġ5":850,"Ġmake":851,"xt":852,"ants":853,"chool":854,"ology":855,"Ġget":856,"Ġbu":857,"ĠAs":858,"ience":859,"chn":860,"Ġrese":861,"Ġimport":862,"ident":863,"Ġear":864,"ural":865,"ited":866,"form":867,"Ġpers":868,"Ġform":869,"land":870,"Ġinter":871,"meric":872,"Ġmod":873,"Ġher":874,"Ġinst":875,"Ġnum":876,"ivers":877,"ting":878,"Ġpol":879,"ines":880,"ins":881,"Ġdisc":882,"Ġexam":883,"ont":884,"ists":885,"ict":886,"Ġfound":887,"ft":888,"Ġbecause":889,"ually":890,"Ġdifferent":891,"Ġlear":892,"hat":893,"ness":894,"Ġlong":895,"Ġsim":896,"Ġafter":897,"Ġeffect":898,"Ġlar":899,"ata":900,"Ġcar":901,"gy":902,"Ġexper":903,"Ġthen":904,"ef":905,"Ġvery":906,"Ġeven":907,"Ġworld":908,"cept":909,"ism":910,"Ġcent":911,"Ġincre":912,"Ġjust":913,"Ġcount":914,"Ġmed":915,"Ġinform":916,"Ġway":917,"oy":918,"ature":919,"urn":920,"Ġdet":921,"Ġed":922,"Ġtyp":923,"get":924,"ĠAmeric":925,"Ġ18":926,"other":927,"Ġhum":928,"aking":929,"Ġresp":930,"vent":931,"ically":932,"Ġsign":933,"Ġsee":934,"Ġgener":935,"Ġthose":936,"Ġvar":937,"ives":938,"Ġref":939,"ollow":940,"Ġke":941,"iew":942,"Ġprog":943,"Ġext":944,"Ġpat":945,"Ġcall":946,"Ġpub":947,"cer":948,"omm":949,"Ġresult":950,"ck":951,"arm":952,"Ġevery":953,"ros":954,"Ġchildren":955,"ps":956,"ases":957,"Ġeach":958,"Ġbeing":959,"Ġprocess":960,"Ġfact":961,"ues":962,"Ġloc":963,"ds":964,"Ġsaid":965,"led":966,"..":967,"Ġsec":968,"Ġca":969,"Ġgra":970,"iron":971,"Ġsoc":972,"ork":973,"Ġrequ":974,"ruct":975,"tle":976,"ages":977,"Ġpartic":978,".âĢĿ":979,"Ġimportant":980,"Th":981,"Ġtechn":982,"ody":983,"Ġset":984,"ĠAl":985,"Ġdist":986,"io":987,"Ġmuch":988,"Ġlife":989,"Ġmon":990,"ĠWe":991,"Ġart":992,"Ġcommun":993,"ather":994,"Ġdep":995,"cent":996,"ved":997,"Ġcre":998,"Ġdef":999,"Ġent":1000,"Ġduring":1001,"Ġshe":1002,"vern":1003,"Ġmy":1004,"ized":1005,"Ġfam":1006,"Ġinformation":1007,"Ġstudents":1008,"imes":1009,"Ġown":1010,"ward":1011,"Ġfollow":1012,"Ġfood":1013,"Ġread":1014,"ĠPro":1015,"Ġright":1016,"ĠThey":1017,"Ġlevel":1018,"Ġmade":1019,"ices":1020,"Ġsk":1021,"Ġlead":1022,"ĠRe":1023,"Ġsame":1024,"Ġaut":1025,"Ġdoes":1026,"any":1027,"gg":1028,"Ġstudy":1029,"Ġ6":1030,"ize":1031,"Ġproble":1032,"Ġfind":1033,"the":1034,"ection":1035,"Ġgrow":1036,"Ġschool":1037,"Ġav":1038,"Ġdata":1039,"hip":1040,"Ġgood":1041,"ted":1042,"ĠIf":1043,"Ġcur":1044,"Ġperson":1045,"ale":1046,"Ġend":1047,"Ġmin":1048,"Ġback":1049,"Ġboth":1050,"onom":1051,"Ġins":1052,"Ġstr":1053,"ĠAn":1054,"Ġpop":1055,"Ġdi":1056,"und":1057,"viron":1058,"Ġche":1059,"ĠFor":1060,".,":1061,"Ġusing":1062,"Ġgrou":1063,"ĠAr":1064,"Ġbefore":1065,"Ġcomple":1066,"Ġsmall":1067,"19":1068,"ality":1069,"Ġshow":1070,"Ġexpl":1071,"Ġhist":1072,"read":1073,"iversity":1074,"iel":1075,"Ġtest":1076,"ially":1077,"Ġcor":1078,"Ġgl":1079,"stand":1080,"ince":1081,"||":1082,"Ġbo":1083,"ĠHow":1084,"ined":1085,"Ġagain":1086,"ars":1087,"Ġmain":1088,"Ġtreat":1089,"inal":1090,"ivid":1091,"omen":1092,"Ġoften":1093,"ock":1094,"ex":1095,"Ġval":1096,"Ġless":1097,"Ġprot":1098,"000":1099,"20":1100,"nce":1101,"imate":1102,"der":1103,"Ġbr":1104,"ergy":1105,"ĠInd":1106,"rol":1107,"ix":1108,"ty":1109,"Ġposs":1110,"ished":1111,"Ġsol":1112,"Ġwhile":1113,"ĠNew":1114,"Ġtake":1115,"Ġdise":1116,"Ġday":1117,"Ġstate":1118,"ute":1119,"ĠSp":1120,"Ġocc":1121,"ax":1122,"ien":1123,"Ġnow":1124,"Ġlit":1125,"Ġnumber":1126,"Ġserv":1127,"akes":1128,"Ġec":1129,"oh":1130,"ĠSc":1131,"Ġris":1132,"ral":1133,"vironment":1134,"Ġresearch":1135,"Ġmem":1136,"Ġpower":1137,"Ġhim":1138,"Ġcell":1139,"ulation":1140,"ier":1141,"Ġorgan":1142,"Ġvis":1143,"irect":1144,"Ġ10":1145,"Ġbody":1146,"Ġprovid":1147,"dition":1148,"Ġactiv":1149,"ury":1150,"Ġfun":1151,"up":1152,"Ġdesign":1153,"air":1154,"ered":1155,"Ġhuman":1156,"Ġchar":1157,"iving":1158,"iqu":1159,"iety":1160,"Ġaround":1161,"Ġdown":1162,"Ġhand":1163,"Ġbel":1164,"Ġmust":1165,"Ġsupport":1166,"Ġthree":1167,"ves":1168,"Ġclass":1169,"ah":1170,"ters":1171,"Ġredu":1172,"hers":1173,"ium":1174,"Ġcommon":1175,"Ġest":1176,"ven":1177,"ger":1178,"Ġlook":1179,"aj":1180,"ave":1181,"uss":1182,"Ġplan":1183,"Ġconf":1184,"Ġstart":1185,"Ġ7":1186,"Ġpoint":1187,"rent":1188,"Ġgreat":1189,"day":1190,"ital":1191,"Ġcle":1192,"Ġland":1193,"âĢĶ":1194,"Ġdid":1195,"Ġelect":1196,"Ġlarge":1197,"ĠBut":1198,"Ġgovern":1199,"ains":1200,"cl":1201,"This":1202,"Ġser":1203,"ving":1204,"Ġreport":1205,"acter":1206,"Ġexample":1207,"self":1208,"gen":1209,"ross":1210,"ouse":1211,"orn":1212,"rain":1213,"Ġcontin":1214,"ee":1215,"Ġcare":1216,"ron":1217,"ull":1218,"com":1219,"ĠIs":1220,"Ġ8":1221,"Ġop":1222,"itions":1223,"ional":1224,"Ġincluding":1225,"Ġallow":1226,"ĠYou":1227,"ared":1228,",âĢĿ":1229,"ash":1230,"Ġconst":1231,"Ġthough":1232,"anc":1233,"ĠThere":1234,"Ġret":1235,"Ġadv":1236,"Ġcalled":1237,"iver":1238,"Ġmet":1239,"Ġwrit":1240,"way":1241,"Ġbuild":1242,"Ġeduc":1243,"Ġcour":1244,"Ġequ":1245,"eg":1246,"Ġunderstand":1247,"aterial":1248,"Ġdr":1249,"Ġknown":1250,"outh":1251,"Ġsom":1252,"esp":1253,"iven":1254,"Ġpublic":1255,"Ġstill":1256,"ner":1257,".\"":1258,"10":1259,"Ġbeh":1260,"inc":1261,"ĠAnd":1262,"ired":1263,"Ġpract":1264,"els":1265,"osed":1266,"iod":1267,"Ġeas":1268,"reen":1269,"Ġ9":1270,"âĢĵ":1271,"oci":1272,"ries":1273,"ividual":1274,"oms":1275,"Ġthink":1276,"ids":1277,"Ġgu":1278,"ĠâĢĺ":1279,"Ġappro":1280,"Ġplace":1281,"Ġquest":1282,"Ġide":1283,"ected":1284,"erest":1285,"de":1286,"Ġmight":1287,"Ġmat":1288,"ential":1289,"Ġfew":1290,"Ġ199":1291,"ources":1292,"ization":1293,"lish":1294,"itive":1295,"ination":1296,"ank":1297,"ĠThese":1298,"Ġstand":1299,"bers":1300,"Ġpresent":1301,"Ġchang":1302,"Ġcaus":1303,"ĠWh":1304,"ering":1305,"raph":1306,"Ġtem":1307,"Ġenergy":1308,"Ġenvironment":1309,"âĢľ":1310,"Ġchange":1311,"Ġwant":1312,"ption":1313,"Ġwithout":1314,"Ġdem":1315,"Ġpur":1316,"eng":1317,"Ġwithin":1318,"Ġproduct":1319,"oun":1320,"tt":1321,"ense":1322,"ration":1323,"me":1324,"ording":1325,"ĠEng":1326,"ior":1327,"Ġdevelopment":1328,"angu":1329,"Ġiss":1330,"ived":1331,"ffic":1332,"Ġlight":1333,"ason":1334,"Ġmaterial":1335,"Ġphys":1336,"ertain":1337,"Ġsym":1338,"ĠDe":1339,"ethod":1340,"ĠUniversity":1341,"Ġindividual":1342,"Ġair":1343,"Ġproject":1344,"agn":1345,"Ġlearn":1346,"man":1347,"Ġcap":1348,"Ġimpro":1349,"less":1350,"Ġident":1351,"eral":1352,"arent":1353,"Ġdisease":1354,"line":1355,"ĠAmerican":1356,"Ġimm":1357,"Ġdirect":1358,"Ġdon":1359,"ets":1360,"ton":1361,"alk":1362,"Ġplay":1363,"Ġsl":1364,"Ġbre":1365,"Ġprof":1366,"bs":1367,"ians":1368,"Ġarea":1369,"Ġpot":1370,"Ġben":1371,"orth":1372,"Ġsit":1373,"Ġanother":1374,"Ġpos":1375,"Ġve":1376,"iness":1377,"illion":1378,"Ġpass":1379,"ental":1380,"Ġmeas":1381,"Ġblood":1382,"ological":1383,"ajor":1384,"ield":1385,"ability":1386,"Ġwomen":1387,"Ġbelie":1388,"Ġeng":1389,"ified":1390,"ĠCon":1391,"Ġinclude":1392,"Ġlaw":1393,"Ġ&":1394,"Ġbest":1395,"pr":1396,"Ġhome":1397,"Ġsocial":1398,"ug":1399,"Ġant":1400,"'t":1401,"atural":1402,"Ġinterest":1403,"ained":1404,"Ġet":1405,"erc":1406,"Ġmus":1407,"rodu":1408,"It":1409,"Ġbas":1410,"Ġcult":1411,"ccess":1412,"Ġrisk":1413,"Ġdesc":1414,"ify":1415,"Ġrest":1416,"Ġpain":1417,"ently":1418,"Ġsever":1419,"ĠAd":1420,"Ġanal":1421,"Ġcontrol":1422,"atic":1423,"Ġmark":1424,"Ġprogram":1425,"az":1426,"Ġopp":1427,"Ġold":1428,"Ġbecome":1429,"ats":1430,"ource":1431,"hor":1432,"Ġearly":1433,"Ġlow":1434,"ĠPh":1435,"Ġproper":1436,"Ġeconom":1437,"Ġbetter":1438,"gin":1439,"ĠHowever":1440,"Ġleg":1441,"Ġmethod":1442,"Ġanim":1443,"here":1444,"ways":1445,"ik":1446,"ision":1447,"Ġhere":1448,"Ġgovernment":1449,"Ġmil":1450,"lished":1451,"Ġwar":1452,"ern":1453,"ining":1454,"Ġagainst":1455,"arc":1456,"Ġmove":1457,"Ġlast":1458,"ĠSh":1459,"Ġpar":1460,"Ġfore":1461,"to":1462,"rist":1463,"Ġsecond":1464,"str":1465,"ills":1466,"Ġreal":1467,"Ġtre":1468,"ware":1469,"Ġkeep":1470,"Ġtoo":1471,"Ġoper":1472,"Ġorder":1473,"eed":1474,"ead":1475,"ission":1476,"Ġavail":1477,"Ġcause":1478,"Ġoccur":1479,"Ġprovide":1480,"ider":1481,"Ġmajor":1482,"ients":1483,"amp":1484,"ards":1485,"Ġter":1486,"lu":1487,"Ġmeans":1488,"Ġgroup":1489,"ories":1490,"ĠUnited":1491,"icle":1492,"Ġele":1493,"Ġhistory":1494,"ention":1495,"view":1496,"rap":1497,"ĠRes":1498,"Ġparticular":1499,"Ġpossible":1500,"Ġfamily":1501,"Ġspecies":1502,"Ġseveral":1503,"ĠCl":1504,"Ġtop":1505,"Ġindu":1506,"Ġperform":1507,"Ġdev":1508,"Ġcurrent":1509,"ples":1510,"Ġunt":1511,"use":1512,"ograph":1513,"Ġpercent":1514,"Ġaddition":1515,"Ġsay":1516,"Ġlangu":1517,"Ġperiod":1518,"Ġnear":1519,"Ġinvol":1520,"ote":1521,"Ġ15":1522,"ised":1523,"par":1524,"ĠEx":1525,"Ġ[":1526,"Ġhig":1527,"Ġorig":1528,"oid":1529,"Ġfin":1530,"Ġlearning":1531,"ĠCol":1532,"Ġable":1533,"ina":1534,"Ġmen":1535,"ĠâĢĶ":1536,"Ġmean":1537,"sy":1538,"pect":1539,"ĠWhen":1540,"Ġsaf":1541,"Ġscient":1542,"irc":1543,"Ġhapp":1544,"ĠGod":1545,"ogn":1546,"Ġ.":1547,"Ġbenef":1548,"Ġnon":1549,"ĠPl":1550,"Ġopen":1551,"Ġsince":1552,"Ġbus":1553,"Ġlim":1554,"urop":1555,"Ġprom":1556,"idence":1557,"Ġcr":1558,"Ġthings":1559,"Ġaffect":1560,"Ġcost":1561,"Ġel":1562,"Ġareas":1563,"Ġsignific":1564,"Ġcal":1565,"Ġplant":1566,"ĠCan":1567,"br":1568,"ĠTo":1569,"ator":1570,"Ġamong":1571,"osp":1572,"though":1573,"ret":1574,"ane":1575,"of":1576,"ole":1577,",\"":1578,"Ġfeel":1579,"ĠStates":1580,"ilar":1581,"Ġothers":1582,"Ġmar":1583,"Ġsays":1584,"ĠSe":1585,"ended":1586,"port":1587,"Ġavailable":1588,"Ġcountry":1589,"What":1590,"ww":1591,"Ġtreatment":1592,"Ġname":1593,"ĠZ":1594,"ĠComm":1595,"Ġbased":1596,"ĠQ":1597,"ames":1598,"Ġfollowing":1599,"omp":1600,"ots":1601,"ends":1602,"Ġfour":1603,"sc":1604,"Ġfre":1605,"ling":1606,"Ġhead":1607,"ably":1608,"Ġtimes":1609,"Ġcase":1610,"Ġprevent":1611,"Ġdel":1612,"Ġfac":1613,"ocus":1614,"Ġcond":1615,"urther":1616,"ances":1617,"Ġwee":1618,"Ġmonth":1619,"Ġaccess":1620,"elf":1621,"cing":1622,"une":1623,"ĠAt":1624,"Ġcome":1625,"Ġcertain":1626,"Ġage":1627,"Ġobject":1628,"Ġfree":1629,"Ġ17":1630,"Ġpost":1631,"ploy":1632,"Ġlist":1633,"Ġview":1634,"Ġlab":1635,"urope":1636,"oint":1637,"Ġproblem":1638,"Ġpress":1639,"Ġstruct":1640,"Ġbi":1641,"Ġrece":1642,"olution":1643,"Ġnatural":1644,"Ġlo":1645,"Ġlocal":1646,"Ġtype":1647,"ression":1648,"Ġrun":1649,"be":1650,"hy":1651,"Ġsuccess":1652,"Ġconn":1653,"aper":1654,"We":1655,"Ġproblems":1656,"Ġput":1657,"ope":1658,"Ġbro":1659,"Ġvol":1660,"Ġ12":1661,"ones":1662,"ĠEn":1663,"Ġgr":1664,"Ġlittle":1665,"Ġcreat":1666,"Ġintern":1667,"icult":1668,"ĠCent":1669,"resent":1670,"Ġhard":1671,"Ġlevels":1672,"Ġbir":1673,"If":1674,"stit":1675,"Ġcells":1676,"Ġamount":1677,"ĠNational":1678,"As":1679,"12":1680,"ggest":1681,"Ġassoci":1682,"Ġbook":1683,"18":1684,"Ġyoung":1685,"work":1686,"ither":1687,"Ġuntil":1688,"Ġfar":1689,"por":1690,"Ġlater":1691,"atory":1692,"ething":1693,"ĠTe":1694,"Ġsignificant":1695,"Ġflow":1696,"Ġmult":1697,"ĠAf":1698,"ĠEurope":1699,"oks":1700,"Ġlet":1701,"Ġgiven":1702,"ately":1703,"Ġimpact":1704,"Ġess":1705,"ides":1706,"ledge":1707,"Ġturn":1708,"ĠChrist":1709,"Ġmaking":1710,"Ġsw":1711,"Ġdue":1712,"ged":1713,"ured":1714,"ĠFr":1715,"not":1716,"uture":1717,"ortun":1718,"Ġrad":1719,"Ġshort":1720,"Ġvir":1721,"Ġcomput":1722,"Ġdeterm":1723,"Ġheart":1724,"Ġsuggest":1725,"hem":1726,"Ġfocus":1727,"Ġseem":1728,"ĠBe":1729,"aps":1730,"aken":1731,"Ġcho":1732,"Ġbehav":1733,"ication":1734,"ĠOr":1735,"Ġ0":1736,"Ġfunction":1737,"over":1738,"cle":1739,"Ġeducation":1740,"Ġlikely":1741,"Ġdays":1742,"Ġhy":1743,"face":1744,"Ġinvest":1745,"Ġfil":1746,"Ġobs":1747,"Ġsystems":1748,"Ġalong":1749,"Ġpolit":1750,"ĠAll":1751,"Ġcomb":1752,"ĠUS":1753,"Ġappear":1754,"agement":1755,"ĠWhat":1756,"ĠOn":1757,"Ġcirc":1758,"Ġcommunity":1759,"Ġlanguage":1760,"Ġincrease":1761,"Ġusually":1762,"Ġsomething":1763,"orld":1764,"Ġdra":1765,"Ġcourse":1766,"ohn":1767,"ending":1768,"isc":1769,"Ġ16":1770,"Ġsing":1771,"ried":1772,"Ġteac":1773,"Ġalways":1774,"vious":1775,"Ġdeath":1776,"Ġresults":1777,"aster":1778,"Ġauthor":1779,"Ġpast":1780,"ecially":1781,"Ġrele":1782,"ring":1783,"Ġdifficult":1784,"ape":1785,"Ġtechnology":1786,"Ġclear":1787,"Ġexist":1788,"Ġconsum":1789,"Ġspecific":1790,"Ġ$":1791,"ĠMed":1792,"ann":1793,"Ġsimilar":1794,"etic":1795,"ators":1796,"af":1797,"Ġtemper":1798,"Ġpopulation":1799,"Ġwords":1800,"Ġparent":1801,"Ġenc":1802,"__":1803,"50":1804,"Ġcreate":1805,"Ġgive":1806,"11":1807,"ember":1808,"Ġspace":1809,"Ġbrain":1810,"Ġtoday":1811,"Ġexperience":1812,"Ġmillion":1813,"Ġrecord":1814,"asing":1815,"Ġill":1816,"min":1817,"ler":1818,"Ġcharacter":1819,"ptoms":1820,"Ġcentury":1821,"Ġconditions":1822,"There":1823,"Ġ'":1824,"Ġneeds":1825,"Ġdescrib":1826,"Ġey":1827,"idd":1828,"Ġcancer":1829,"Ġspecial":1830,"Ġabove":1831,"ours":1832,"ĠSo":1833,"mit":1834,"especially":1835,"ively":1836,"ruction":1837,"Ġline":1838,"rug":1839,"iation":1840,"Ġdam":1841,"app":1842,"Ġwhy":1843,"aining":1844,"How":1845,"Ġdiscuss":1846,"Ġbegin":1847,"ored":1848,"ox":1849,"Ġfuture":1850,"Ġnext":1851,"Ġnecess":1852,"Ġcrit":1853,"Ġchanges":1854,"Ġer":1855,"Ġhowever":1856,"Ġhigher":1857,"obal":1858,"Ġprop":1859,"ribut":1860,"ĠBrit":1861,"ĠAfric":1862,"Ġapplic":1863,"Ġleast":1864,"Ġvarious":1865,"Ġcountries":1866,"Ġestab":1867,"Ġprofess":1868,"Ġgre":1869,"Ġtoget":1870,"Ġtogether":1871,"most":1872,"orts":1873,"Ġside":1874,"Ġmov":1875,"Ġtry":1876,"Ġstrong":1877,"Ġworks":1878,"ĠEar":1879,"ique":1880,"Ġask":1881,"ilities":1882,"Ġacross":1883,"St":1884,"Ġrequire":1885,"ison":1886,"ĠBl":1887,"Ġnever":1888,"ray":1889,"Ġleft":1890,"selves":1891,"Ġrespons":1892,"Ġcomplete":1893,"nal":1894,"Ġbusiness":1895,"oney":1896,"aves":1897,"ode":1898,"Ġkind":1899,"atch":1900,"by":1901,"Ġimprove":1902,"ateg":1903,"Ġplants":1904,"Ġworking":1905,"Ġenough":1906,"Ġcolle":1907,"Ġaway":1908,"Ġeffects":1909,"omes":1910,"ĠSy":1911,"Ġmot":1912,"Ġways":1913,"sp":1914,"Ġresearc":1915,"Ġcy":1916,"amm":1917,"Ġespecially":1918,"Ġtool":1919,"Ġsens":1920,"sw":1921,"Ġpatients":1922,"ilt":1923,"Ġterm":1924,"Ġplac":1925,"Ġtru":1926,"Ġgeneral":1927,"for":1928,"Ġprim":1929,"alf":1930,"ales":1931,"acy":1932,"Ġfull":1933,"ysis":1934,"let":1935,"Ġ198":1936,"Ġchem":1937,"Ġstudies":1938,"ĠLe":1939,"thing":1940,"Ġnet":1941,"aring":1942,"ĠGerm":1943,"oot":1944,"Ġcases":1945,"Ġhaving":1946,"ument":1947,"acc":1948,"Ġsubject":1949,"NA":1950,"duct":1951,"oman":1952,"aching":1953,"Ġkey":1954,"lement":1955,"ĠWar":1956,"Ġinflu":1957,"Ġbecame":1958,"iting":1959,"Ġconsider":1960,"ĠJohn":1961,"Ġteam":1962,"//":1963,"ipp":1964,"ires":1965,"ley":1966,"Ġtypes":1967,"aim":1968,"side":1969,"ned":1970,"Ġwhether":1971,"Ġgoing":1972,"ges":1973,"chie":1974,"Ġnorm":1975,"Ġknowledge":1976,"ued":1977,"ush":1978,"Ġrelations":1979,"Ġz":1980,"Ġaccount":1981,"Ġrepresent":1982,"istic":1983,"apt":1984,"Ġsymptoms":1985,"An":1986,"Ġstep":1987,"Ġconcer":1988,"ott":1989,"Ġlower":1990,"ĠSome":1991,"ency":1992,"Ġcity":1993,"Ġprotect":1994,"Ġpred":1995,"Ġreason":1996,"Ġfurther":1997,"Ġground":1998,"Ġmind":1999,"itor":2000,"Ġphysical":2001,"...":2002,"ising":2003,"Ġmakes":2004,"Ġscience":2005,"ready":2006,"Ġopt":2007,"ification":2008,"Ġhouse":2009,"Ġpolic":2010,"ung":2011,"ery":2012,"ĠGen":2013,"ĠEnglish":2014,"Ġrole":2015,"ites":2016,"Ġproduction":2017,"Ġself":2018,"For":2019,"200":2020,"Ġtext":2021,"://":2022,"ĠWorld":2023,"30":2024,"Ġsum":2025,"sych":2026,"Ġbig":2027,"ables":2028,"edi":2029,"ae":2030,"atures":2031,"Ġfund":2032,"Ġ30":2033,"erence":2034,"Ġquestion":2035,"ird":2036,"Ġrange":2037,"ĠWith":2038,"icro":2039,"Ġsure":2040,"aut":2041,"bon":2042,"Ġlive":2043,"ĠOne":2044,"lo":2045,"Ġactivity":2046,"Ġeff":2047,"Ġindic":2048,"15":2049,"Ġvalue":2050,"ĠGo":2051,"Ġchall":2052,"mber":2053,"Ġtoward":2054,"ibility":2055,"Ġseen":2056,"cul":2057,"Ġmodel":2058,"urch":2059,"verage":2060,"Ġgroups":2061,"Ġdig":2062,"ream":2063,"Ġactivities":2064,"Ġwr":2065,"etimes":2066,"rel":2067,"ĠIntern":2068,"Ġparticip":2069,"16":2070,"Ġnut":2071,"Ġalready":2072,"iol":2073,"ĠHealth":2074,"Ġloss":2075,"Ġens":2076,"Ġreally":2077,"esc":2078,"Ġgrowth":2079,"Ġwind":2080,"augh":2081,"Ġdone":2082,"Ġfall":2083,"Ġresources":2084,"Ġoffic":2085,"ĠThat":2086,"Ġstat":2087,"ands":2088,"Ġemploy":2089,"Ġ14":2090,"Ġdeveloped":2091,"ĠCar":2092,"Ġclose":2093,"Ġrather":2094,"Ġbelow":2095,"Ġproducts":2096,"unt":2097,"Ġeither":2098,"Ġarticle":2099,"Ġlot":2100,"uation":2101,"osis":2102,"Ġquality":2103,"Ġsite":2104,"iple":2105,"iam":2106,"Ġstory":2107,"Ġpotential":2108,"Ġfield":2109,"Ġword":2110,"oura":2111,"Ġpaper":2112,"ils":2113,"overed":2114,"Ġrecogn":2115,"Ġflu":2116,"Ġdeg":2117,"fact":2118,"Ġbat":2119,"Ġnational":2120,"Ġachie":2121,"ĠMar":2122,"Ġneg":2123,"Ġprob":2124,"Ġur":2125,"Ġdiet":2126,"Ġmass":2127,"Ġaccording":2128,"Ġsingle":2129,"Ġphot":2130,"idered":2131,"Ġclimate":2132,"earch":2133,"Ġtradition":2134,"ival":2135,"ĠAm":2136,"rams":2137,"Ġsource":2138,"ĠGe":2139,"Ġdrug":2140,"17":2141,"Ġreduce":2142,"Ġobserv":2143,"Ġabs":2144,"ĠCal":2145,"Ġevent":2146,"ER":2147,"ĠPr":2148,"Ġindust":2149,"Ġsurface":2150,"Ġbuilding":2151,"put":2152,"amin":2153,"rict":2154,"Ġtaken":2155,"Ġrate":2156,"ĠTr":2157,"ĠNorth":2158,"13":2159,"14":2160,"ĠAmerica":2161,"Ġfive":2162,"Ġinit":2163,"ĠDr":2164,"Ġskills":2165,"Ġconcept":2166,"Ġred":2167,"ĠIm":2168,"ublic":2169,"Ġwhite":2170,"eter":2171,"Ġissues":2172,"ivil":2173,"Ġmeet":2174,"Ġonce":2175,"Ġwhole":2176,"Ġmembers":2177,"Ġupon":2178,"ĠAb":2179,"Ġevidence":2180,"Ġfr":2181,"ĠShe":2182,"Ġtot":2183,"Ġmedical":2184,"Ġconsidered":2185,"Ġdoct":2186,"val":2187,"Ġcollect":2188,"ask":2189,"rect":2190,"ĠSouth":2191,"ivity":2192,"When":2193,"Ġfrequ":2194,"Ġfail":2195,"ĠMay":2196,"Ġann":2197,"ule":2198,"fficient":2199,"Ġrecomm":2200,"fer":2201,"Ġresearchers":2202,"leep":2203,"âĢ¦":2204,"urity":2205,"Ġaddress":2206,"Ġdetail":2207,"Ġrelig":2208,"Ġsize":2209,"Ġpressure":2210,"reg":2211,"reme":2212,"Ġcreated":2213,"Ġdom":2214,"Ġsun":2215,"ips":2216,"Ġcut":2217,"ym":2218,"Ġthemselves":2219,"Ġwide":2220,"Ġcame":2221,"org":2222,"Ġreturn":2223,"Ġquestions":2224,"epend":2225,"oph":2226,"Ġliving":2227,"Ġdest":2228,"Ġrepl":2229,"Ġsent":2230,"Ġsound":2231,"Ġnature":2232,"ĠStud":2233,"Ġ=":2234,"eb":2235,"roll":2236,"ibr":2237,"Ġassociated":2238,"illed":2239,"Ġintrodu":2240,"ournal":2241,"Ġincreased":2242,"Ġtell":2243,"ĠBy":2244,"Ġcannot":2245,"Ġfri":2246,"Ġhold":2247,"ights":2248,"Ġpay":2249,"ober":2250,"Ġsal":2251,"Ġskin":2252,"Ġanimals":2253,"ety":2254,"Ġver":2255,"Ġ197":2256,"utions":2257,"ĠAss":2258,"Ġhistor":2259,"Ġpolitical":2260,"Ġmarket":2261,"Ġrequired":2262,"Ġpractice":2263,"like":2264,"Ġsimple":2265,"Ġstates":2266,"Ġlay":2267,"ĠRep":2268,"Ġadult":2269,"Ġactually":2270,"Ġthought":2271,"yn":2272,"itud":2273,"enn":2274,"oon":2275,"sequ":2276,"Ġrelated":2277,"Ġweek":2278,"sh":2279,"Ch":2280,"Ġentire":2281,"Ġneeded":2282,"Ġopportun":2283,"Ġunderstanding":2284,"Ġstress":2285,"Ġ13":2286,"Ġblack":2287,"artment":2288,"Ġeffective":2289,"Ġability":2290,"Ġengine":2291,"Ġmaterials":2292,"Ġprote":2293,"ĠAust":2294,"Ġpurp":2295,"Ġfish":2296,"Ġstudent":2297,".)":2298,"Ġpublished":2299,"ications":2300,"ĠMan":2301,"Ġquick":2302,"Ġcomplex":2303,"Ġfamil":2304,"Ġhtt":2305,"Ġeconomic":2306,"SA":2307,"Ġdoc":2308,"Ġhealthy":2309,"Ġspe":2310,"Ġitself":2311,"Ġrelationship":2312,"olic":2313,"ĠSoc":2314,"ening":2315,"Ġglobal":2316,"ĠYork":2317,"Ġparts":2318,"Ġmaint":2319,"Ġidea":2320,"Ġfat":2321,"Ġport":2322,"Ġalmost":2323,"Ġarg":2324,"ened":2325,"Ġcondition":2326,"pro":2327,"hib":2328,"Ġfeed":2329,"Ġmodern":2330,"--":2331,"Ġvers":2332,"Ġprovides":2333,"aging":2334,"ump":2335,"Ġrights":2336,"ging":2337,"Ġansw":2338,"aged":2339,"ĠEarth":2340,"acks":2341,"Al":2342,"Ġcomes":2343,"lying":2344,"Ġdog":2345,"Ġoil":2346,"oses":2347,"ai":2348,"erve":2349,"Ġmoney":2350,"Ġservices":2351,"Ġassess":2352,"vere":2353,"ores":2354,"go":2355,"ĠAct":2356,"rad":2357,"mb":2358,"uel":2359,"Ġmor":2360,"hing":2361,"Ġavoid":2362,"Ġcat":2363,"To":2364,"itary":2365,"ney":2366,"yl":2367,"chan":2368,"Ġfactors":2369,"ĠDep":2370,"Ġhalf":2371,"Ġmonths":2372,"Ġgas":2373,"Ġexperien":2374,"):":2375,"Ġmeasure":2376,"Ġnecessary":2377,"Ġreact":2378,"Ġexerc":2379,"Ġcoll":2380,"gest":2381,"Ġmanagement":2382,"Ġweight":2383,"bo":2384,"ĠState":2385,"ises":2386,"Ġparents":2387,"Ġgreen":2388,"Ġsuper":2389,"ĠX":2390,"Ġtook":2391,"Ġproduce":2392,"Ġsuff":2393,"Ġbegan":2394,"rown":2395,"Ġarch":2396,"Ġarr":2397,"ensive":2398,"Ġbar":2399,"Ġlink":2400,"urs":2401,"ĠHis":2402,"Ġpath":2403,"Ġapproach":2404,"oll":2405,"Ġ100":2406,"ĠComp":2407,"ply":2408,"abor":2409,"my":2410,"ese":2411,"Ġanalysis":2412,"ĠGu":2413,"usion":2414,"cient":2415,"ences":2416,"Ġpriv":2417,"Ġcop":2418,"Ġsam":2419,"Ġsoft":2420,"Ġever":2421,"Ġcolor":2422,"ĠJew":2423,"ĠHist":2424,"Ġyet":2425,"based":2426,"You":2427,"Ġconduct":2428,"Ġprinc":2429,"Ġsoil":2430,"onse":2431,"Ġ|":2432,"iction":2433,"Wh":2434,"abit":2435,"Ġtar":2436,"ma":2437,"Ġregion":2438,"Ġcomputer":2439,"apan":2440,"Ġge":2441,"\".":2442,"izing":2443,"utes":2444,"Ġ196":2445,"ume":2446,"iddle":2447,"Ġliter":2448,"Ġjob":2449,"ĠNe":2450,"Ġsepar":2451,"Ġpattern":2452,"Ġemer":2453,"Ġthroughout":2454,"Ġclaim":2455,"Ġchemical":2456,"Ġpopular":2457,"Ġstop":2458,"inter":2459,"empt":2460,"nces":2461,"Ġreading":2462,"ript":2463,"Ġfarm":2464,"ĠCont":2465,"Ġregard":2466,"ze":2467,"ĠDo":2468,"estern":2469,"Ġbur":2470,"Ġincreasing":2471,"irm":2472,"ĠBritish":2473,"ĠCo":2474,"eds":2475,"Ġtaking":2476,"uck":2477,"Ġpersonal":2478,"Ġaction":2479,"igure":2480,"Ġrul":2481,"Ġbuilt":2482,"Ġsense":2483,"pid":2484,"Ġrecent":2485,"Ġ50":2486,"Ġfire":2487,"Ġshows":2488,"icles":2489,"erous":2490,"Ġtotal":2491,"Ġla":2492,"ĠCanad":2493,"Ġlonger":2494,"ches":2495,"ections":2496,"emic":2497,"Ġcontent":2498,"ccording":2499,"ĠAfter":2500,"Ġtherap":2501,"Ġwriting":2502,"lor":2503,"Ġterms":2504,"Ġsix":2505,"Ġprevious":2506,"Ġinteract":2507,"Ġenvironmental":2508,"ES":2509,"Ġschools":2510,"Ġindividuals":2511,"Ġindustry":2512,"Ġhours":2513,"Ġstructure":2514,"Ġservice":2515,"Ġtalk":2516,"Ġtemperature":2517,"Ġinj":2518,"Ġbehavior":2519,"Ġonline":2520,"Ġposition":2521,"hold":2522,"wh":2523,"Ġexperim":2524,"Ġclean":2525,"het":2526,"anced":2527,"minist":2528,"Ġut":2529,"Ġmatter":2530,"itation":2531,"Ġsociety":2532,"Ã©":2533,"Ġcompany":2534,"Ġcaused":2535,"ulations":2536,"Ġheat":2537,"Ġdisord":2538,"Ġheav":2539,"mon":2540,"yle":2541,"Ġdiagn":2542,"Ġ25":2543,"Ġprovided":2544,"Ġtravel":2545,"ĠPe":2546,"Ġetc":2547,"Ġsleep":2548,"Ġsat":2549,"Ġcontact":2550,"Ġtraining":2551,"ricult":2552,"fully":2553,"aff":2554,"astic":2555,"Ġsurv":2556,"Ġcauses":2557,"ĠWhile":2558,"Ġthing":2559,"ID":2560,"Ġ194":2561,"lt":2562,"Ġ11":2563,"ĠSchool":2564,"Ġconc":2565,"Ġbreak":2566,"ĠNo":2567,"ns":2568,"ows":2569,"ĠResearch":2570,"arr":2571,"Ġsex":2572,"Ġmeaning":2573,"ene":2574,"ropri":2575,"Ġaccept":2576,"lands":2577,"Ġcheck":2578,"Ġce":2579,"ister":2580,"reng":2581,"Ġeasy":2582,"Ġtrue":2583,"vey":2584,"ederal":2585,"ĠJapan":2586,"Ġrev":2587,"Ġvide":2588,"Ġvari":2589,"Ġcontain":2590,"aily":2591,"Ġshown":2592,"Ġdesigned":2593,"lex":2594,"Ġlives":2595,"inary":2596,"Ġwild":2597,"AT":2598,"Ġbring":2599,"Ġincludes":2600,"istance":2601,"ster":2602,"Ġearth":2603,"Ġbenefits":2604,"hood":2605,"ĠII":2606,"ĠInstit":2607,"rought":2608,"ĠEm":2609,"Ġprec":2610,"istics":2611,"Ġspread":2612,"imately":2613,"Ġvariety":2614,"AR":2615,"light":2616,"ronic":2617,"Ġaverage":2618,"Ġstandard":2619,"ched":2620,"Ġsafe":2621,"aving":2622,"Ġmethods":2623,"Ġste":2624,"gar":2625,"Ġcarbon":2626,"Ġmach":2627,"ĠPar":2628,"Ġpositive":2629,"dom":2630,"rench":2631,"Ġregular":2632,"Ġsometimes":2633,"abet":2634,"aries":2635,"asc":2636,"Ġprograms":2637,"Ġrelative":2638,"atives":2639,"Ġled":2640,"Ġeat":2641,"Ġbacter":2642,"Ġslow":2643,"Ġbelieve":2644,"Ġsubst":2645,"Ġdeep":2646,"rior":2647,"Ġissue":2648,"Ġgreater":2649,"Ġfru":2650,"Ġfem":2651,"Ġscientists":2652,"Ġmusic":2653,"Ġexc":2654,"ners":2655,"ĠÂ":2656,"ufact":2657,"Ġorigin":2658,"Ġlove":2659,"Ġreview":2660,"Ġtarget":2661,"Ġlif":2662,"eration":2663,"Ġmechan":2664,"Ġsimply":2665,"Ġresponse":2666,"Ġviol":2667,"Ġthreat":2668,"icine":2669,"Ġcompl":2670,"ĠIndia":2671,"ĠSu":2672,"amed":2673,"Ġreported":2674,"osition":2675,"Ġoriginal":2676,"Ġculture":2677,"Ġpoll":2678,"But":2679,"Ġdamage":2680,"ĠKing":2681,"ĠPres":2682,"Ġinvolved":2683,"Ġuses":2684,"duc":2685,"arily":2686,"Ġsources":2687,"ucle":2688,"Ġwritten":2689,"ades":2690,"Ġmovement":2691,"Ġpage":2692,"new":2693,"verse":2694,"ength":2695,"Ġpsych":2696,"Ġhelps":2697,"know":2698,"Ġevents":2699,"aling":2700,"Ġpict":2701,"Ġple":2702,"Ġdoing":2703,"Ġnormal":2704,"ĠScience":2705,"rast":2706,"Ġcamp":2707,"Ġdemon":2708,"Ġrespect":2709,"Ġidentify":2710,"ban":2711,"Ġencoura":2712,"Ġoutside":2713,"Ġfoods":2714,"Ġcompan":2715,"Ġtax":2716,"Ġface":2717,"22":2718,"Ġimage":2719,"ials":2720,"Ġremov":2721,"oor":2722,"Ġcompon":2723,"ĠMin":2724,"ĠWill":2725,"rand":2726,"Ġforest":2727,"ĠSec":2728,"ington":2729,"Ġstreng":2730,"Ġparticularly":2731,"Ġpoor":2732,"Ġcompet":2733,"Ġforms":2734,"Ġproduced":2735,"aches":2736,"Ġlack":2737,"ĠAustral":2738,"ervation":2739,"Ġmicro":2740,"rim":2741,"Ġgenerally":2742,"Ġdeveloping":2743,"Ġinteg":2744,"umb":2745,"Ġrefer":2746,"ops":2747,"Ġtend":2748,"Ġ--":2749,"Ġwebs":2750,"Ġdeb":2751,"bor":2752,"Ġlate":2753,"Ġfeet":2754,"Ġattention":2755,"Ġdispl":2756,"issions":2757,"idge":2758,"Ġforce":2759,"uge":2760,"son":2761,"ief":2762,"Ġbasic":2763,"Ġserious":2764,"Ġbal":2765,"Ġattempt":2766,"ctions":2767,"ĠPer":2768,"Ġlog":2769,"ached":2770,"Ġextreme":2771,"IN":2772,"Ġimplement":2773,"25":2774,"Ġwood":2775,"Ġshare":2776,"Ġappl":2777,"Ġsust":2778,"room":2779,"Ġensure":2780,"Ġlat":2781,"Ġattack":2782,"oles":2783,"osure":2784,"Ġnumbers":2785,"ĠEd":2786,"Ġelectric":2787,"Ġteachers":2788,"Ġvisit":2789,"isions":2790,"raft":2791,"Ġsqu":2792,"Ġaff":2793,"Ġincluded":2794,"Ġgrowing":2795,"Ġvirus":2796,"Ġemb":2797,"Ġcust":2798,"ĠMe":2799,"Ġcorrect":2800,"ĠCO":2801,"Ġ24":2802,"rated":2803,"set":2804,"Ġnetwork":2805,"Ġindepend":2806,"Ġprobably":2807,"Ġselect":2808,"Ġconsist":2809,"Ġcoun":2810,"ĠApp":2811,"ems":2812,"elling":2813,"Ġmagn":2814,"ĠCount":2815,"Ġessential":2816,"Ġox":2817,"Ġir":2818,"Ġideas":2819,"Ġdoesn":2820,"Ġdraw":2821,"Ġseries":2822,"ming":2823,"Ġanimal":2824,"Ġaware":2825,"Ġhyd":2826,"Ġchalleng":2827,"Ġcontinue":2828,"Ġharm":2829,"ecause":2830,"Ġemot":2831,"ĠJan":2832,"Ġcommit":2833,"Ġvacc":2834,"ĠMany":2835,"ĠQu":2836,"vention":2837,"Ġnight":2838,"Ġmess":2839,"irit":2840,"Ġdou":2841,"ided":2842,"Ġpatient":2843,"part":2844,"fect":2845,"cies":2846,"Ġmanufact":2847,"osing":2848,"Ġtakes":2849,"Ġbab":2850,"Ġdefin":2851,"Ġgetting":2852,"uth":2853,"ĠChina":2854,"ĠPre":2855,"Ġcolon":2856,"Ġago":2857,"Ġprep":2858,"Ġpolicy":2859,"ography":2860,"ads":2861,"ana":2862,"ribution":2863,"Ġthus":2864,"oly":2865,"Ġinternational":2866,"Ġspeed":2867,"hel":2868,"Ġsafety":2869,"ground":2870,"Ġveget":2871,"Ġtherefore":2872,"Ġexpress":2873,"ĠCenter":2874,"uary":2875,"rie":2876,"imum":2877,"ties":2878,"ĠAg":2879,"Ġestim":2880,"Ġprint":2881,"Ġkids":2882,"Ġ/":2883,"where":2884,"ension":2885,"Ġlooking":2886,"Ġearl":2887,"Ġeasily":2888,"Ġsea":2889,"ĠBo":2890,"na":2891,"Ġsomeone":2892,"Ġmedia":2893,"Ġconcent":2894,"ext":2895,"Ġinstead":2896,"Ġwall":2897,"Ġtheory":2898,"Ġmother":2899,"cell":2900,"Ġfa":2901,"haps":2902,"On":2903,"Ġscientific":2904,"Ġprimary":2905,"ĠMore":2906,"Ġinvestig":2907,"Ġsil":2908,"ius":2909,"Ġquite":2910,"www":2911,"erson":2912,"Ġfinanc":2913,"Ġcit":2914,"IS":2915,"Ġcross":2916,"ĠInt":2917,"ĠJu":2918,"Ġsou":2919,"overy":2920,"itude":2921,"oes":2922,"Ġappropri":2923,"Ġwarm":2924,"ĠFrench":2925,"inks":2926,"rew":2927,"anks":2928,"Ġstarted":2929,"ls":2930,"Ġdaily":2931,"iot":2932,"iforn":2933,"Ġtown":2934,"ĠAug":2935,"Ġtraditional":2936,"Ġadded":2937,"asons":2938,"Ġvit":2939,"Ġbooks":2940,"Ġfav":2941,"Ġcover":2942,"ying":2943,"Ġperformance":2944,"Ġallows":2945,"Ġdetermine":2946,"ancy":2947,"ha":2948,"ceed":2949,"ĠEuropean":2950,"Ġdifference":2951,"Ġdang":2952,"Ġful":2953,"Ġinstit":2954,"Ġtree":2955,"erg":2956,"ĠPart":2957,"Ġdiv":2958,"Ġmental":2959,"Ġestablished":2960,"Ġheld":2961,"yr":2962,"ĠEduc":2963,"Ġsold":2964,"Ġleaders":2965,"ino":2966,"Ġtools":2967,"Ġnation":2968,"Ġcivil":2969,"Ġcapt":2970,"Ġtur":2971,"ror":2972,"Ġtiss":2973,"Ġeval":2974,"Ġcommunities":2975,"ĠYour":2976,"iency":2977,"Ġunc":2978,"Ġthous":2979,"Ġreflect":2980,"Ġthird":2981,"Ġpoints":2982,"Ġachieve":2983,"Ġdiseases":2984,"cil":2985,"Ġlarger":2986,"Ġprogress":2987,"Ġ40":2988,"orks":2989,"Ġi":2990,"Ġdecre":2991,"ĠInstitute":2992,"Ġinside":2993,"Ġtrees":2994,"ĠCons":2995,"ender":2996,"ĠMost":2997,"Ġquickly":2998,"Ġmilitary":2999,"ĠIndian":3000,"Ġeth":3001,"abetes":3002,"ifornia":3003,"ellow":3004,"Ġcompared":3005,"Ġoffer":3006,"ille":3007,"Ġmultiple":3008,"ĠAc":3009,"Ġimmedi":3010,"Ġfront":3011,"elt":3012,"Ġunique":3013,"Ġhumans":3014,"Ġaltern":3015,"ounds":3016,"Ġdirectly":3017,"Ġanswer":3018,"ĠEl":3019,"ĠDepartment":3020,"useum":3021,"Ġspeak":3022,"Ġreve":3023,"ĠGl":3024,"rate":3025,"Ġcompanies":3026,"Ġeye":3027,"ift":3028,"Ġadditional":3029,"pril":3030,"aces":3031,"omet":3032,"cean":3033,"Ġhighly":3034,"Ġ2010":3035,"Ġsevere":3036,"OR":3037,"Ġdrink":3038,"undred":3039,"Ġrout":3040,"Ġdocument":3041,"Ġalthough":3042,"Ġdemonstr":3043,"Ġinfection":3044,"AN":3045,"pe":3046,"Ġproced":3047,"rs":3048,"icated":3049,"Ġbit":3050,"Ġdoctor":3051,"Ġhttp":3052,"ON":3053,"Ġsoon":3054,"Ġshall":3055,"Ġactive":3056,"term":3057,"Ġbirth":3058,"Ġclin":3059,"iers":3060,"Ġbehind":3061,"thern":3062,"Ġdry":3063,"Ġsecurity":3064,"Ġlabor":3065,"den":3066,"Ġprior":3067,"Ġsolar":3068,"ĠJes":3069,"Ġfamilies":3070,"One":3071,"ĠAfrica":3072,"oming":3073,"ĠMarch":3074,"Ġ2012":3075,"hern":3076,"ĠGerman":3077,"gency":3078,"Ġexercise":3079,"Ġnegative":3080,"ilos":3081,"Ġextra":3082,"joy":3083,"Ġhost":3084,"Ġaspect":3085,"Ġtri":3086,"Ġwent":3087,"Ġ,":3088,"ĠSm":3089,"Ġuseful":3090,"Ġwalk":3091,"Ġcentral":3092,"Ġhor":3093,"ulate":3094,"Ġbroad":3095,"Ġbad":3096,"Ġhar":3097,"ĠWest":3098,"Ġacid":3099,"Ġtransport":3100,"Ġaud":3101,"iques":3102,"nov":3103,"Ġbeginning":3104,"Ġdecl":3105,"ĠCalifornia":3106,"ĠOct":3107,"formation":3108,"ĠHar":3109,"Ġvideo":3110,"isms":3111,"Ġseems":3112,"Ġhabit":3113,"Ġcritical":3114,"21":3115,"Ġwhose":3116,"Ġprotein":3117,"Ġvalues":3118,"Ġ2011":3119,"ĠRec":3120,"Ġobt":3121,"IC":3122,"Ġlimited":3123,"aly":3124,"uries":3125,"Ġsupply":3126,"ĠOther":3127,"23":3128,"Ġfoot":3129,"ĠChild":3130,"Ġsus":3131,"Ġpurpose":3132,"rig":3133,"Ġaccur":3134,"iter":3135,"Ġanaly":3136,"ĠJune":3137,"Ġstay":3138,"Ġleading":3139,"ĠRuss":3140,"Ġgard":3141,"Ġsearch":3142,"ĠOf":3143,"yond":3144,"uman":3145,"omb":3146,"ims":3147,"ĠInternational":3148,"Ġmount":3149,"ĠArt":3150,"vant":3151,"ĠUs":3152,"Ġfram":3153,"Ġquant":3154,"Ġcard":3155,"He":3156,"Ġtowards":3157,"Ġteaching":3158,"itis":3159,"ĠChar":3160,"olar":3161,"IV":3162,"Ġstra":3163,"mar":3164,"Ġexpect":3165,"iber":3166,"ĠAfrican":3167,"ĠHer":3168,"rition":3169,"ĠRiver":3170,"âĢ¢":3171,"Ġhot":3172,"Ġfeatures":3173,"rogen":3174,"Ġsituation":3175,"Ġnucle":3176,"Ġimpl":3177,"Ġnews":3178,"Ġsoftware":3179,"lation":3180,"gn":3181,"Ġhands":3182,"Ġcontains":3183,"rote":3184,"Ġminutes":3185,"ĠNot":3186,"Ġbase":3187,"Ġjud":3188,"Ġcontribut":3189,"Ġlost":3190,"orthern":3191,"So":3192,"ran":3193,"Ġones":3194,"Ġfight":3195,"ĠGree":3196,"ĠAlthough":3197,"wise":3198,"40":3199,"inct":3200,"Ġpack":3201,"Ġcustom":3202,"Ġinterp":3203,"ĠSch":3204,"ĠSept":3205,"And":3206,"Ġsection":3207,"Ġancient":3208,"coh":3209,"lection":3210,"come":3211,"Ġelements":3212,"itch":3213,"ĠHistory":3214,"Ġwrite":3215,"hest":3216,"Ġstri":3217,"ĠMus":3218,"pper":3219,"Ġthinking":3220,"Ġrates":3221,"Ġrequires":3222,"Ġexact":3223,"Ġdark":3224,"Ġexcept":3225,"oring":3226,"att":3227,"ription":3228,"Ġlength":3229,"Ġfast":3230,"Ġdescribed":3231,"ĠWash":3232,"Ġhundred":3233,"Ġreceived":3234,"Ġx":3235,"see":3236,"ĠServ":3237,"Ġnorth":3238,"Ġord":3239,"AS":3240,"Ġjo":3241,"ields":3242,"Ġelse":3243,"ĠAugust":3244,"Ġbrought":3245,"ĠReg":3246,"Ġcapital":3247,"Ġwaste":3248,"Ġadults":3249,"Ġadminist":3250,"Ġlargest":3251,"Ġmom":3252,"hens":3253,"Ġworkers":3254,"Ġapplication":3255,"ologies":3256,"Ġimages":3257,"Ġinfluence":3258,"Ġwa":3259,"fort":3260,"ĠTra":3261,"âĢĿ.":3262,"Ġagricult":3263,"Ġagree":3264,"Ġsustain":3265,"uk":3266,"60":3267,"Ġstrateg":3268,"rael":3269,"Ġfinancial":3270,"used":3271,"Ġblock":3272,"istry":3273,"imin":3274,"Ġenjoy":3275,"Ġnearly":3276,"Ġweeks":3277,"izations":3278,"Ġprivate":3279,"Ġcred":3280,"Ġcapac":3281,"Ġlocated":3282,"Ġdisp":3283,"Ġgot":3284,"Ġprotection":3285,"Ġdemand":3286,"Ġcarry":3287,"ibrary":3288,"ĠFirst":3289,"80":3290,"Ġdecision":3291,"equ":3292,"EN":3293,"Ġ21":3294,"ĠKe":3295,"vest":3296,"Ġlines":3297,"Ġang":3298,"ĠBar":3299,"ĠMon":3300,"Ġestablish":3301,"ĠSw":3302,"iles":3303,"ipl":3304,"ĠApril":3305,"Ġwebsite":3306,"bit":3307,"Ġmill":3308,"ĠAnt":3309,"Ġcosts":3310,"ulated":3311,"Ġsn":3312,"ipment":3313,"Ġult":3314,"Ġtests":3315,"Ġgoal":3316,"'re":3317,"ĠJuly":3318,"Ġprocesses":3319,"ĠHere":3320,"Ġmole":3321,"con":3322,"Ġplaces":3323,"odies":3324,"Ġsites":3325,"ED":3326,"Ġleaves":3327,"Ġdevices":3328,"ĠTw":3329,"Ġrare":3330,"Ġbacteria":3331,"Ġbecomes":3332,"Ġseason":3333,"Ġsymb":3334,"Ġappropriate":3335,"Ġep":3336,"ĠDav":3337,"year":3338,"rag":3339,"199":3340,"Ġcommand":3341,"Ġreligious":3342,"ĠJesus":3343,"Ġmention":3344,"Ġmemory":3345,"PA":3346,"cks":3347,"Ġlaws":3348,"Ġadop":3349,"Ġprojects":3350,"ĠPress":3351,"Ġgame":3352,"ĠEngland":3353,"ĠCor":3354,"ĠAssoci":3355,"Ġimportance":3356,"Ġsolution":3357,"sect":3358,"life":3359,"Ġreach":3360,"Ġefforts":3361,"ica":3362,"Ġtable":3363,"ĠChristian":3364,"mission":3365,"Ġadj":3366,"Ġremain":3367,"Ġsouth":3368,"Ġtypically":3369,"Ġborn":3370,"Ġrespond":3371,"ĠMc":3372,"idents":3373,"ĠAmericans":3374,"uous":3375,"Ġproperty":3376,"med":3377,"eal":3378,"Ġtold":3379,"Ġadapt":3380,"Ġbasis":3381,"Ġfit":3382,"ĠPresident":3383,"Ġstru":3384,"entially":3385,"Ġhimself":3386,"Ġrapid":3387,"ĠCanada":3388,"imal":3389,"cial":3390,"Ġinstall":3391,"Ġsurround":3392,"itect":3393,"24":3394,"Ġveh":3395,"Ġcoast":3396,"Ġbeaut":3397,"oud":3398,"Ġeyes":3399,"Ġremains":3400,"ĠFrom":3401,"Ġ2009":3402,"Ġcool":3403,"ĠDay":3404,"Ġfather":3405,"Ġtechniques":3406,"____":3407,"ĠMy":3408,"Ġtesting":3409,"inese":3410,"iece":3411,"izes":3412,"Ġegg":3413,"Ġdeal":3414,"ondon":3415,"aul":3416,"Ġsummer":3417,"ĠProg":3418,"Ġfriends":3419,"resh":3420,"back":3421,"head":3422,"Ġcenter":3423,"Ġder":3424,"Ġvict":3425,"cember":3426,"Ġmix":3427,"Ġgives":3428,"estic":3429,"oke":3430,"At":3431,"atur":3432,"ype":3433,"Ġadvant":3434,"water":3435,"Ġfuel":3436,"ham":3437,"Ġconstruction":3438,"Ġcrop":3439,"ĠWilliam":3440,"Ġdied":3441,"Ġson":3442,"Ġdead":3443,"Ġapplications":3444,"Ġmiles":3445,"uments":3446,"ĠGovern":3447,"Ġcitiz":3448,"Ġcommunication":3449,"arian":3450,"Ġeating":3451,"Ġsaw":3452,"ford":3453,"Ġcam":3454,"Ġking":3455,"ari":3456,"Ġtrade":3457,"king":3458,"Ġcold":3459,"cohol":3460,"ĠCong":3461,"ĠWashington":3462,"Ġweb":3463,"Ġteacher":3464,"Ġcreating":3465,"Ġ2013":3466,"ĠPark":3467,"Ġmonitor":3468,"Ġcele":3469,"Ġnothing":3470,"Ġcultural":3471,"Ġroom":3472,"Ġsugar":3473,"bur":3474,"Ġfinal":3475,"Ġanything":3476,"mosp":3477,"ama":3478,"ĠCity":3479,"Ġbreat":3480,"ogen":3481,"ĠRet":3482,"Ġ2008":3483,"IT":3484,"Ġresponsible":3485,"Ġsequ":3486,"Ġexpected":3487,"cles":3488,"ira":3489,"Ġbehavi":3490,"Ġrecently":3491,"Ġhope":3492,"ĠIsrael":3493,"Ġfollowed":3494,"ĠChurch":3495,"Ġgradu":3496,"These":3497,"Ġrock":3498,"Ġhous":3499,"Ġbott":3500,"Ġice":3501,"Ġdepend":3502,"aught":3503,"Ġobjects":3504,"Ġimag":3505,"exic":3506,"ĠEducation":3507,"Ġtherapy":3508,"Ġeverything":3509,"ony":3510,"ovember":3511,"Ġanti":3512,"co":3513,"Ġreasons":3514,"Ġbenefit":3515,"Ġolder":3516,"Ġpan":3517,"Ġforces":3518,"Ġdevice":3519,"Ġcou":3520,"Ġreceive":3521,"Ġstage":3522,"Ġlegal":3523,"iar":3524,"itable":3525,"ĠFeb":3526,"Ġmiddle":3527,"unch":3528,"Ġund":3529,"Ġten":3530,"Ġbul":3531,"illing":3532,"ev":3533,"strial":3534,"ĠJanuary":3535,"Ġteeth":3536,"ĠGreat":3537,"Ġmid":3538,"Ġspirit":3539,"Ġcode":3540,"Ġscreen":3541,"Ġpen":3542,"Ġexposure":3543,"Ġautom":3544,"Ġbeyond":3545,"ĠInc":3546,"ula":3547,"Ġasked":3548,"ĠJournal":3549,"Ġaffected":3550,"time":3551,"Ġfederal":3552,"Ġmodels":3553,"ought":3554,"Ġconnect":3555,"apter":3556,"By":3557,"Ġscale":3558,"ellig":3559,"Ġequipment":3560,"Ġexamples":3561,"Ġhyp":3562,"ĠSeptember":3563,"AC":3564,"Ġpregn":3565,"Ġdiabetes":3566,"Ex":3567,"Ġsmaller":3568,"ĠTechn":3569,"uff":3570,"Ġconsequ":3571,"rees":3572,"Ġdate":3573,"ĠCom":3574,"Ġproviding":3575,"Ġoccurs":3576,"tery":3577,"lam":3578,"sec":3579,"Ġcurrently":3580,"ĠLear":3581,"Ġcalcul":3582,"Ġchoose":3583,"lin":3584,"aid":3585,"iples":3586,"Ġconstit":3587,"Ġ23":3588,"Ġdrugs":3589,"ĠOctober":3590,"Ġweather":3591,"Ġopportunity":3592,"Ġstandards":3593,"Ġwrote":3594,"Ġfile":3595,"Ġeconomy":3596,"Ġrain":3597,"ests":3598,"Ġrecommend":3599,"Ġcontroll":3600,"Ġprofessional":3601,"Ġpractices":3602,"Ġalone":3603,"Ġdigital":3604,"Ġfear":3605,"anish":3606,"Ġinstru":3607,"edia":3608,"à¤":3609,"ĠSystem":3610,"Ġ:":3611,"Ġguid":3612,"can":3613,"Ġsett":3614,"ding":3615,"ĠEven":3616,"Ġlocation":3617,"Ġsuccessful":3618,"Ġcra":3619,"Ġcompletely":3620,"Ġwon":3621,"lamm":3622,"Ġinsp":3623,"Ġorganization":3624,");":3625,"ĠCounty":3626,"With":3627,"Ġconflic":3628,"ospital":3629,"ĠBi":3630,"Ġcollection":3631,"Ġdegree":3632,"vert":3633,"Ġtit":3634,"Ġtrying":3635,"Ġbirds":3636,"Ġapprox":3637,"Ġvisual":3638,"ĠChinese":3639,"Ġearlier":3640,"ribute":3641,"Ġbeg":3642,"Ġyourself":3643,"While":3644,"ĠDevelop":3645,"Ġpurch":3646,"ĠDNA":3647,"Ġpredict":3648,"airs":3649,"book":3650,"aur":3651,"ĠIS":3652,"Ġeveryone":3653,"Ġwoman":3654,"men":3655,"ensity":3656,"Ġrise":3657,"Ġswe":3658,"aced":3659,"Ġwinter":3660,"Ġeffort":3661,"load":3662,"Ġallowed":3663,"mitted":3664,"enge":3665,"Ġplaced":3666,"Ġdifferences":3667,"Ġnamed":3668,"Ġshape":3669,"Ġstrength":3670,"Ġrules":3671,"Ġdestro":3672,"ĠVir":3673,"ĠEc":3674,"icate":3675,"Ġmeasures":3676,"wide":3677,"Ġvia":3678,"Ġ60":3679,"Ġinteresting":3680,"27":3681,"Ġconstant":3682,"ĠLondon":3683,"Ġgoes":3684,"ocol":3685,"Ġplanet":3686,"ĠMexic":3687,"rick":3688,"Ġformer":3689,"ĠSur":3690,"ĠEast":3691,"ĠPol":3692,"Ġoverall":3693,"oe":3694,"Ġball":3695,"ĠDis":3696,"Ġcru":3697,"Ġvirt":3698,"Ġjoint":3699,"Ġsch":3700,"ĠThen":3701,"Ġleave":3702,"Ġexec":3703,"Ġmember":3704,"ruary":3705,"Ġcommonly":3706,"ĠAccording":3707,"oday":3708,"Ġbillion":3709,"Ġneigh":3710,"Ġcommerc":3711,"iest":3712,"Ġcontinued":3713,"Ġreduced":3714,"Ġcateg":3715,"ocr":3716,"Ġ193":3717,"Ġdiscovered":3718,"ĠTrans":3719,"ĠOur":3720,"Ġusers":3721,"ĠSan":3722,"Ġisn":3723,"ĠRed":3724,"Ġenh":3725,"Ġhon":3726,"Ġuser":3727,"Ġgenetic":3728,"ĠDecember":3729,"Ġpet":3730,"ingu":3731,"ĠHigh":3732,"ara":3733,"Ġoccup":3734,"cious":3735,"ĠCommun":3736,"Ġpoly":3737,"ĠRoman":3738,"ĠBr":3739,"aters":3740,"Ġdisplay":3741,"Ġ2007":3742,"Ġelectr":3743,"Ġmaintain":3744,"off":3745,"ste":3746,"Ġacqu":3747,"ĠSim":3748,"Ġapplied":3749,"hemat":3750,"Ġidentified":3751,"bl":3752,"Ġperfect":3753,"su":3754,"ocks":3755,"irection":3756,"Ġenter":3757,"ĠLaw":3758,"eech":3759,"ĠRead":3760,"29":3761,"Ġsteps":3762,"Ġtrack":3763,"Ġhistorical":3764,"26":3765,"Ġformed":3766,"Ġrob":3767,"ĠVal":3768,"Ġtox":3769,"reet":3770,"Ġeight":3771,"Ġpowerful":3772,"Some":3773,"ibly":3774,"more":3775,"Ġrule":3776,"Ġmiss":3777,"ords":3778,"AL":3779,"Ġgold":3780,"Ġversion":3781,"bre":3782,"Ġmis":3783,"Ġmax":3784,"edom":3785,"Ġden":3786,"Ġsect":3787,"Ġwond":3788,"Ġcoming":3789,"iable":3790,"enty":3791,"ĠDuring":3792,"oration":3793,"Ġrich":3794,"Ġphilos":3795,"Ġmajority":3796,"ĠInst":3797,"Ġcourt":3798,"Ġbaby":3799,"craft":3800,"ĠPat":3801,"Ġstatus":3802,"Ġcompar":3803,"Ġsigns":3804,"Ġcontext":3805,"Ġchurch":3806,"ĠCoun":3807,"Ġevolution":3808,"ĠNovember":3809,"Ġatmosp":3810,"Ġteach":3811,"ĠMod":3812,"Ġfair":3813,"alt":3814,"que":3815,"ĠGeneral":3816,"emy":3817,"Ġgave":3818,"Ġfruit":3819,"ĠArch":3820,"Ġroad":3821,"ĠCour":3822,"Ġshowed":3823,"Ġlimit":3824,"aled":3825,"70":3826,"encies":3827,"known":3828,"Ġcook":3829,"Ġacad":3830,"Ġproperties":3831,"rab":3832,"Ġmig":3833,"Ġpow":3834,"Ġmob":3835,"gery":3836,"rec":3837,"Ġcapacity":3838,"28":3839,"Ġ195":3840,"Ġperhaps":3841,"Ġpresence":3842,"osy":3843,"Ġemissions":3844,"ĠJewish":3845,"Ġcities":3846,"atin":3847,"Ġ+":3848,"ĠBecause":3849,"Ġassign":3850,"ament":3851,"Ġast":3852,"aint":3853,"Ġstim":3854,"Ġincreases":3855,"Ġillness":3856,"Pro":3857,"Ġnames":3858,"ĠAlso":3859,"Ġmouth":3860,"Ġnote":3861,"Ġrelatively":3862,"Ġrat":3863,"ĠFin":3864,"Ġasse":3865,"Ġremember":3866,"ĠUnion":3867,"ĠSociety":3868,"aste":3869,"ĠHouse":3870,"Ġgir":3871,"\",":3872,"Ġmut":3873,"Ġimmune":3874,"Ġtissue":3875,"Ġbra":3876,"Ġbelief":3877,"Ġfully":3878,"ĠSince":3879,"Ġdidn":3880,"Ġillust":3881,"Ġchoice":3882,"phas":3883,"Ġpeace":3884,"Ġsymbol":3885,"Ġdat":3886,"related":3887,"Ġchanged":3888,"EC":3889,"ĠBlack":3890,"Ġpatterns":3891,"Ġactions":3892,"Ġconstruct":3893,"inated":3894,"Ġantib":3895,"Ġsitu":3896,"ĠConf":3897,"odes":3898,"resp":3899,"Ġappears":3900,"Ġefficient":3901,"orge":3902,"era":3903,"ternal":3904,"gypt":3905,"Ġfemale":3906,"Ġexisting":3907,"oted":3908,"ĠWater":3909,"iences":3910,"ĠAustralia":3911,"Ġtou":3912,"Ġmachine":3913,"Ġcry":3914,"iring":3915,"Ġassist":3916,"Ġstaff":3917,"Ġnutri":3918,"Ġfactor":3919,"Ġunit":3920,"Ġriver":3921,"Ġworked":3922,"Ġworth":3923,"II":3924,"iful":3925,"Ġvill":3926,"Ġincor":3927,"udd":3928,"rief":3929,"Ġmoving":3930,"ĠGermany":3931,"ĠProt":3932,"Ġalcohol":3933,"aign":3934,"Ġpp":3935,"Ġmoment":3936,"ĠAre":3937,"Ġpicture":3938,"ees":3939,"Ġtransfer":3940,"Ġpiece":3941,"ĠNow":3942,"Ġprice":3943,"Ġrepe":3944,"Ġ26":3945,"Ġcomponents":3946,"Ġstories":3947,"Ġexpand":3948,"Ġcontract":3949,"Ġeducational":3950,"ĠProf":3951,"Ġfresh":3952,"Ġemp":3953,"Ġ28":3954,"Ġforward":3955,"Ġtask":3956,"Ġgiving":3957,"Ġarchitect":3958,"Ġmission":3959,"ession":3960,"Ġfunctions":3961,"Ġstrugg":3962,"house":3963,"Ad":3964,"Ġelement":3965,"ĠUse":3966,"Ġeffic":3967,"ĠJust":3968,"ĠFrance":3969,"Ġforeign":3970,"amb":3971,"abilities":3972,"ero":3973,"Ġmap":3974,"ĠPeople":3975,"iate":3976,"Ġbox":3977,"Ġbreast":3978,"Ġevalu":3979,"Ġconvers":3980,"ĠAssociation":3981,"Ġ2000":3982,"ĠRo":3983,"ĠFl":3984,"rieved":3985,"Ġreports":3986,"rome":3987,"ĠNA":3988,"Ġstar":3989,"Ġhair":3990,"ky":3991,"Ġinstance":3992,"force":3993,"icip":3994,"Ġwid":3995,"Ġopportunities":3996,"Is":3997,"Ġequal":3998,"Ġfindings":3999,"Ġtele":4000,"Un":4001,"Ġdirection":4002,"Ġobserved":4003,"Ġoffers":4004,"iny":4005,"rehens":4006,"Ġconsumption":4007,"ĠEnvironment":4008,"Ġanx":4009,"Ġdetect":4010,"Ġbalance":4011,"ĠFebruary":4012,"Ġdistance":4013,"rupt":4014,"Ġregions":4015,"Ġ27":4016,"Ġplanning":4017,"Ġnative":4018,"Ġthousands":4019,"Ġassum":4020,"Ġchallenges":4021,"ygen":4022,"ST":4023,"Ġvo":4024,"Ġcollabor":4025,"Ġdetails":4026,"Ġinnov":4027,"Ġing":4028,"Ġblue":4029,"Ġqual":4030,"eding":4031,"Ġoffice":4032,"Ġvision":4033,"Ġbelieved":4034,"Ġmal":4035,"Ġweak":4036,"Ġwrong":4037,"Ġrunning":4038,"ĠCongress":4039,"Ġabsor":4040,"HE":4041,"lim":4042,"asion":4043,"Ġ22":4044,"Ġfriend":4045,"igen":4046,"Ġfamous":4047,"ĠAng":4048,"Ġpassed":4049,"Ġchance":4050,"Ġhuge":4051,"Ġinstruct":4052,"Ġsurpr":4053,"Ġstyle":4054,"hors":4055,"Ġexplain":4056,"Ġplans":4057,"Be":4058,"ald":4059,"All":4060,"Ġexhib":4061,"Ġaim":4062,"ĠPhil":4063,"Ġdisorder":4064,"oma":4065,"Ġsurvey":4066,"omas":4067,"Ġspect":4068,"che":4069,"Ġmuscle":4070,"ĠTheir":4071,"Ġcitizens":4072,"Ġphen":4073,"pped":4074,"âĢĿ,":4075,"ifically":4076,"Ġbound":4077,"Ġdefined":4078,"Ġmilk":4079,"Ġwatch":4080,"pective":4081,"Ġseparate":4082,"Ġguide":4083,"lege":4084,"ĠEach":4085,"Ġgain":4086,"iment":4087,"Ġclassroom":4088,"Ġtreated":4089,"DA":4090,"iox":4091,"Ġâ":4092,"ĠUK":4093,"Ġeventually":4094,"nes":4095,"Ġsignificantly":4096,"Ġfavor":4097,"Ġclinical":4098,"Ġinsect":4099,"Ġcommercial":4100,"Ġoptions":4101,"cont":4102,"tee":4103,"Ġfeature":4104,"Ġ2006":4105,"Ġsuggests":4106,"Ġincome":4107,"ĠEgypt":4108,"Ġbone":4109,"Ġextremely":4110,"yd":4111,"ĠGreen":4112,"orage":4113,"Ġsuppl":4114,"uild":4115,"Ġitems":4116,"RE":4117,"ogle":4118,"Ġgoals":4119,"ĠInternet":4120,"Ġresistance":4121,"ses":4122,"Ġap":4123,"Ġfigure":4124,"Ġpresented":4125,"Ġlearned":4126,"Ġcelebr":4127,"Ġfix":4128,"Ġgarden":4129,"ographic":4130,"ĠWestern":4131,"Ġfert":4132,"Ġmale":4133,"ching":4134,"bed":4135,"iding":4136,"Ġhighest":4137,"Ġcarried":4138,"Ġiron":4139,"eces":4140,"wards":4141,"Ġstrategies":4142,"Ġheavy":4143,"Ġseven":4144,"Ġapply":4145,"Ġexcess":4146,"Ġattract":4147,"Ġspring":4148,"ĠThus":4149,"Ġsac":4150,"Ġstructures":4151,"90":4152,"Ġorganizations":4153,"Ġdepression":4154,"Ġgeneration":4155,"ĠLord":4156,"Ġimmediately":4157,"Ġrequirements":4158,"Ġjournal":4159,"Ġboard":4160,"Ġtechnologies":4161,"After":4162,"Ġdivid":4163,"ĠPublic":4164,"Ġhappen":4165,"ĠDon":4166,"ĠJapanese":4167,"ĠPal":4168,"ĠProgram":4169,"Ġurban":4170,"iance":4171,"ophy":4172,"ĠWeb":4173,"Ġapproximately":4174,"Ġpick":4175,"care":4176,"Ġexperiences":4177,"Ġ2015":4178,"Ġplastic":4179,"ken":4180,"char":4181,"ĠCur":4182,"ĠUN":4183,"change":4184,"Ġeasier":4185,"cast":4186,"Ġexplore":4187,"ĠBra":4188,"Ġtruth":4189,"Ġutil":4190,"enth":4191,"Ġneu":4192,"Ġmedicine":4193,"ĠJames":4194,"Ġresource":4195,"Ġglass":4196,"ares":4197,"Ġdecades":4198,"ris":4199,"Ġrot":4200,"ologist":4201,"Ġcand":4202,"Ġdestroy":4203,"ube":4204,"ulum":4205,"Ġindustrial":4206,"ĠRev":4207,"iated":4208,"Ġlegis":4209,"Ġactual":4210,"zz":4211,"ĠSee":4212,"uit":4213,"Ġsave":4214,"ĠDec":4215,"Ġemphas":4216,"Ġdyn":4217,"ĠAut":4218,"ĠSpec":4219,"ĠVol":4220,"Ġreality":4221,"Ġliqu":4222,"isation":4223,"ĠInter":4224,"Ġ2005":4225,"Ġpopulations":4226,"Ġconducted":4227,"Ġstream":4228,"Ġmo":4229,"ĠMor":4230,"35":4231,"Ġhom":4232,"iant":4233,"Ġvary":4234,"They":4235,"Ġfaith":4236,"Ġbodies":4237,"Ġmoved":4238,"Ġbank":4239,"Ġintroduced":4240,"Ġslight":4241,"ida":4242,"uses":4243,"Ġserve":4244,"Ġrelease":4245,"Ġdecisions":4246,"ĠMich":4247,"erate":4248,"Ar":4249,"Ġalternative":4250,"Ġexperiment":4251,"Ġves":4252,"Ġchallenge":4253,"Ġbecoming":4254,"Ġcycle":4255,"Ġmer":4256,"Ġnuclear":4257,"Ġrecords":4258,"ĠPlan":4259,"Ġgene":4260,"ĠCouncil":4261,"Ġbed":4262,"Ġspeech":4263,"Ġestimated":4264,"Ġign":4265,"Ġdisorders":4266,"Ġdistribution":4267,"Ġperformed":4268,"ĠMat":4269,"ĠLet":4270,"antic":4271,"Ġnovel":4272,"Ġassessment":4273,"Ġtopic":4274,"Ġfig":4275,"Ġnutrition":4276,"Ġbuildings":4277,"Ġaspects":4278,"Ġelectricity":4279,"Ġfrequently":4280,"ĠMary":4281,"Ġremove":4282,"Ġkid":4283,"Ġintellig":4284,"Ġagg":4285,"Ġmetal":4286,"Ġmag":4287,"Ġopin":4288,"Ġsexual":4289,"clus":4290,"Ġ80":4291,"ously":4292,"raw":4293,"Ġfields":4294,"imens":4295,"apers":4296,"ĠDavid":4297,"Ġ190":4298,"Ġpul":4299,"do":4300,"Ġindependent":4301,"Ġrecommended":4302,"Ph":4303,"roph":4304,"Ġfilm":4305,"ĠCollege":4306,"unction":4307,"asks":4308,"Ġcontrast":4309,"ulf":4310,"othes":4311,"Ġgraph":4312,"ĠFound":4313,"Ġvitamin":4314,"Ġ2016":4315,"Ġsample":4316,"Ġreference":4317,"ĠChe":4318,"ĠRetrieved":4319,"Ġchronic":4320,"Ġreleased":4321,"ET":4322,"Ġwidely":4323,"Ġroot":4324,"bal":4325,"Ġcombination":4326,"Ġnotes":4327,"ĠOver":4328,"ĠDes":4329,"Ġflood":4330,"Ġbuy":4331,"Ġhomes":4332,"Ġpresident":4333,"order":4334,"Â°":4335,"Ġ2014":4336,"Ġcausing":4337,"ĠChildren":4338,"Ġparty":4339,"Ġesc":4340,"Ġoperations":4341,"cular":4342,"ĠGreek":4343,"Ġletter":4344,"icial":4345,"Ġdoub":4346,"Ġoxygen":4347,"ĠDevelopment":4348,"porary":4349,"Ġclearly":4350,"PS":4351,"ĠNet":4352,"Ġorganic":4353,"erved":4354,"ressive":4355,"Ġtransl":4356,"45":4357,"Ġhousehold":4358,"Ġtemperatures":4359,"tical":4360,"Ġtour":4361,"ager":4362,"rant":4363,"Ġdesp":4364,"ocal":4365,"met":4366,"Ġnumerous":4367,"Ġbottom":4368,"Ġconnected":4369,"ologists":4370,"Ġstore":4371,"ped":4372,"Ġkilled":4373,"olid":4374,"Ġocean":4375,"ias":4376,"Ġradio":4377,"Sh":4378,"Ġresulting":4379,"works":4380,"Ġsetting":4381,"rest":4382,"Ġdiscussion":4383,"Ġwanted":4384,"Ġtrust":4385,"Ġrisks":4386,"Ġdogs":4387,"Ġtechnique":4388,"Ġlived":4389,"Ġcharacteristics":4390,"tered":4391,"ĠTex":4392,"ructure":4393,"Ġdrive":4394,"Ġchanging":4395,"Ġappe":4396,"ĠHuman":4397,"Ġliterature":4398,"olved":4399,"Ġprefer":4400,"Ġcampaign":4401,"Ġemail":4402,"ĠRel":4403,"raction":4404,"Ġ#":4405,"Ġterrit":4406,"roup":4407,"Ġmic":4408,"Ġfailure":4409,"ognitive":4410,"Ġnoted":4411,"Ġhear":4412,"Ġthr":4413,"Ġunivers":4414,"Ġcreation":4415,"ĠSam":4416,"Ġcovered":4417,"otes":4418,"Ġgets":4419,"elines":4420,"Ġlayer":4421,"ĠSpanish":4422,"Ġminor":4423,"Ġviolence":4424,"Ġpartners":4425,"Ġstarting":4426,"33":4427,"Ġisol":4428,"Ġtrig":4429,"erences":4430,"ilit":4431,"atically":4432,"Ġprepar":4433,"Ġturned":4434,"ĠTur":4435,"Ġbattle":4436,"EM":4437,"ĠRepublic":4438,"AM":4439,"ĠGovernment":4440,"Ġanyone":4441,"Ġpolicies":4442,"Ġparticipants":4443,"Ġradiation":4444,"ĠMuseum":4445,"Ġinjury":4446,"Ġdrop":4447,"ieces":4448,"ĠAv":4449,"Ġinitial":4450,"Ġsurgery":4451,"Ġnor":4452,"ĠPaul":4453,"Ġauthors":4454,"Ġtum":4455,"Ġvessel":4456,"key":4457,"ĠFood":4458,"Ġready":4459,"ii":4460,"Ġreducing":4461,"lick":4462,"Ġsolutions":4463,"Ġdistinct":4464,"ĠSocial":4465,"rows":4466,"Ġ29":4467,"anging":4468,"ĠHIV":4469,"Ġconnection":4470,"Ġburn":4471,"onds":4472,"Ġ186":4473,"Ġinternal":4474,"Ġdegrees":4475,"Ġsav":4476,"mark":4477,"Ġreplace":4478,"iveness":4479,"Ġreprodu":4480,"Ġtim":4481,"Ġarm":4482,"ĠCath":4483,"Ġded":4484,"Ġupper":4485,"ios":4486,"ij":4487,"Ġdri":4488,"ĠUnder":4489,"ĠWork":4490,"nam":4491,"Ġmessage":4492,"Ġmeeting":4493,"hetic":4494,"Ġfreedom":4495,"ĠOff":4496,"Ġphysic":4497,"essor":4498,"Ġmostly":4499,"Ġinflamm":4500,"Ġreferred":4501,"Ġcounter":4502,"Ġtrou":4503,"Ġexpression":4504,"ndrome":4505,"Ġhappens":4506,"ĠTherefore":4507,"Ġgenes":4508,"Äģ":4509,"Ġtooth":4510,"Ġremoved":4511,"Ġannual":4512,"ieties":4513,"osystem":4514,"ception":4515,"Ġinvolves":4516,"Ġcollege":4517,"Ġshap":4518,"ault":4519,"ĠGeorge":4520,"According":4521,"cop":4522,"och":4523,"Ġwin":4524,"urance":4525,"OS":4526,"Ġdangerous":4527,"Ġplease":4528,"Ġstatement":4529,"Ġbackground":4530,"Ġcircum":4531,"Ġexactly":4532,"ĠRober":4533,"Ġtrend":4534,"lease":4535,"Ġwhom":4536,"Ġfinding":4537,"Ġstorage":4538,"iverse":4539,"Ġrelationships":4540,"ĠOb":4541,"Ġtrib":4542,"Ġhorm":4543,"Ġmentioned":4544,"78":4545,"Ġconv":4546,"However":4547,"ĠFore":4548,"ĠProject":4549,"Ġvolume":4550,"ressed":4551,"with":4552,"Ġproperly":4553,"Ġisland":4554,"Ġoption":4555,"ĠMount":4556,"Ġreligion":4557,"Ġload":4558,"Ġfeeling":4559,"Ġprinciples":4560,"Ġoutput":4561,"Ġvul":4562,"Ġsand":4563,"ĠAir":4564,"Ġupd":4565,"Ġencourage":4566,"Ġgames":4567,"Ġhelped":4568,"Ġclasses":4569,"Ġdetermined":4570,"Ġunf":4571,"Ġheard":4572,"Ġadjust":4573,"Ġadvantage":4574,"Ġinfections":4575,"Ġexcell":4576,"Ġthick":4577,"ĠTest":4578,"Ġfine":4579,"Ġsem":4580,"Ġclick":4581,"ĠCourt":4582,"Ġpal":4583,"orial":4584,"oyal":4585,"za":4586,"ĠOnce":4587,"Ġpric":4588,"ĠIsland":4589,"ortunately":4590,"Ġscen":4591,"Ġadvanced":4592,"Ġconfirm":4593,"Ġmathemat":4594,"Ġdram":4595,"atform":4596,"ander":4597,"stitution":4598,"ĠJews":4599,"ishing":4600,"rum":4601,"Ġexposed":4602,"Ġrace":4603,"Ġinvolve":4604,"ux":4605,"ping":4606,"mal":4607,"ĠSun":4608,"Ġacademic":4609,"Ġgrass":4610,"Ġunits":4611,"Ġcore":4612,"Ġalg":4613,"isher":4614,"Ġ90":4615,"ĠInf":4616,"Ġserved":4617,"Ġinfluen":4618,"75":4619,"Ġexperts":4620,"Ġdescribe":4621,"ss":4622,"rog":4623,"leg":4624,"riculum":4625,"Ġdie":4626,"uration":4627,"Ġelimin":4628,"Ġregarding":4629,"Ġincorpor":4630,"ĠWhy":4631,"riage":4632,"ĠMars":4633,"Ġconservation":4634,"Ġleads":4635,"Ġkept":4636,"Ġanxiety":4637,"Ġcomprehens":4638,"Ġexperienced":4639,"Ġgrant":4640,"Ġ2004":4641,"Ġbeautiful":4642,"Ġprocessing":4643,"Ġseed":4644,"Ġbelong":4645,"Ġpages":4646,"Ġlandsc":4647,"Ġmeat":4648,"rep":4649,"Ġreb":4650,"Ġnorthern":4651,"Ġpreviously":4652,"Ġ2017":4653,"alled":4654,"Ġship":4655,"Ġinh":4656,"Ġamounts":4657,"road":4658,"Ġinterpret":4659,"ĠPort":4660,"ĠMexico":4661,"Ġlung":4662,"Ġseeds":4663,"ĠPhys":4664,"Ġdepending":4665,"Ġdefic":4666,"Ġarticles":4667,"Ġreaction":4668,"ĠOrgan":4669,"uing":4670,"Ġdecided":4671,"ĠAsia":4672,"umn":4673,"Ġsouthern":4674,"Ġprepared":4675,"Ġsynt":4676,"Here":4677,"Ġlinked":4678,"Res":4679,"ĠService":4680,"ĠIts":4681,"Ġsolid":4682,"Ġsort":4683,"Sp":4684,"oting":4685,"ago":4686,"Ġrelevant":4687,"Ġ...":4688,"ĠHen":4689,"Ġinput":4690,"Ġ70":4691,"itz":4692,"ĠGra":4693,"mat":4694,"ĠLa":4695,"Ġinterested":4696,"urt":4697,"36":4698,"berg":4699,"Ġhour":4700,"Ġpollution":4701,"Ġconflict":4702,"well":4703,"Ġdatab":4704,"onic":4705,"Ġoperation":4706,"Ġvolunt":4707,"Ġfarmers":4708,"ributed":4709,"uted":4710,"Ġpromote":4711,"ĠRich":4712,"Ġatmosphere":4713,"cers":4714,"Ġjour":4715,"place":4716,"Ġround":4717,"Ġofficial":4718,"ategy":4719,"Ġspot":4720,"ĠTexas":4721,"Ġprofession":4722,"wood":4723,"New":4724,"inate":4725,"Ġgod":4726,"Ġsaying":4727,"ta":4728,"Many":4729,"Ġspent":4730,"Ġmist":4731,"Ġcalc":4732,"Ġobvious":4733,"Ġwealth":4734,"board":4735,".;":4736,"ĠMal":4737,"Ġmanufacture":4738,"Ġessay":4739,"Ġsquare":4740,"Ġwest":4741,"Ġeggs":4742,"ams":4743,"CC":4744,"kin":4745,"ĠMark":4746,"Ġexpert":4747,"tes":4748,"Ġmel":4749,"Ġmeant":4750,"ya":4751,"Ġcere":4752,"That":4753,"Ġphase":4754,"Ġtransform":4755,"Ġpresc":4756,"ĠDem":4757,"Ġcompleted":4758,"Ġstrategy":4759,"astern":4760,"Ġdiss":4761,"Ġconcepts":4762,"Ġconcerns":4763,"Ġhelping":4764,"Ġconcern":4765,"Ġlanguages":4766,"mp":4767,"Ġhearing":4768,"aughter":4769,"Ġbud":4770,"Ġmotor":4771,"which":4772,"ĠEv":4773,"Ġfol":4774,"Ġemotional":4775,"Con":4776,"Ġgender":4777,"Ġeffectively":4778,"Ġconclud":4779,"Ġsignal":4780,"Ġconsult":4781,"Ġpret":4782,"rans":4783,"ĠIslam":4784,"ĠST":4785,"zing":4786,"RO":4787,"Ġcomfort":4788,"Ġcoal":4789,"Ġinvent":4790,"ria":4791,"ĠAcad":4792,"Ġengineering":4793,"vision":4794,"nic":4795,"ded":4796,"ĠSer":4797,"ĠBel":4798,"ifying":4799,"Ġsong":4800,"acific":4801,"Why":4802,"Ġimproved":4803,"ĠStudents":4804,"Ġprocedure":4805,"Ġmanner":4806,"Ġreached":4807,"Ġpieces":4808,"Ġlic":4809,"Ġaid":4810,"Ġpun":4811,"Ġmanage":4812,"ĠJer":4813,"Ġsustainable":4814,"onomic":4815,"Ġmath":4816,"rete":4817,"Although":4818,"Ġconver":4819,"iling":4820,"ball":4821,"Ġinstitutions":4822,"Ġcredit":4823,"ormal":4824,"ĠSub":4825,"Ġchemicals":4826,"Ġstation":4827,"Ġgrade":4828,"Ġ2003":4829,"Ġproposed":4830,"Ġsupported":4831,"ĠHel":4832,"Ġnav":4833,"Ġefficiency":4834,"ĠBer":4835,"Ġhop":4836,"oking":4837,"Ġappoint":4838,"Ġseek":4839,"Ġintended":4840,"Ġvegetables":4841,"Ã¡":4842,"Ġcharge":4843,"iology":4844,"Ġwet":4845,"Ġlib":4846,"Ġawareness":4847,"Ġdiagnosis":4848,"Ġdrinking":4849,"100":4850,"ĠLou":4851,"Ġvaccine":4852,"Ġmainly":4853,"Ġauthority":4854,"Ġdiscover":4855,"standing":4856,"rence":4857,"38":4858,"Ġpip":4859,"Ġhospital":4860,"Ġclos":4861,"ample":4862,"ĠVirgin":4863,"des":4864,"Our":4865,"Ġkill":4866,"ules":4867,"Ġcorresp":4868,"Ġpurposes":4869,"ĠBas":4870,"ĠJe":4871,"Ġbrother":4872,"ĠAD":4873,"ĠWhite":4874,"Ġyellow":4875,"Ġfrequency":4876,"Ġsecret":4877,"Ġdefinition":4878,"Ġcast":4879,"atric":4880,"ĠMiss":4881,"Ġowners":4882,"ek":4883,"oper":4884,"uable":4885,"Ġstorm":4886,"Ġyouth":4887,"amental":4888,"osite":4889,"Ġprofessor":4890,"Ġlooks":4891,"Ġsufficient":4892,"otic":4893,"ĠNASA":4894,"Ġtoxic":4895,"Ġcontinues":4896,"Ġphenomen":4897,"Ġfinally":4898,"Cl":4899,"rates":4900,"Ġnotice":4901,"ĠDi":4902,"lig":4903,"ĠBritain":4904,"Ġdoll":4905,"ĠRem":4906,"vis":4907,"'ll":4908,"alle":4909,"Ġpractical":4910,"Ġpark":4911,"Ġcomment":4912,"Ġallowing":4913,"Ġwaters":4914,"ishes":4915,"Now":4916,"ounced":4917,"Ġsamples":4918,"Ġ35":4919,"Ġformation":4920,"clusion":4921,"ĠSen":4922,"Ġmort":4923,"From":4924,"Ġrecorded":4925,"Ġshared":4926,"akers":4927,"ears":4928,"Ġtechnical":4929,"ĠIr":4930,"ĠEvery":4931,"eline":4932,"Ġvulner":4933,"Ġarmy":4934,"Ġlesson":4935,"Ġcombined":4936,"Ġbegins":4937,"Ġdro":4938,"Ġforced":4939,"Ġwonder":4940,"ĠArab":4941,"ĠâĢ¦":4942,"ags":4943,"Ġmotiv":4944,"Ġreduction":4945,"Ġsusp":4946,"Ġrenew":4947,"Ġoffered":4948,"ĠCivil":4949,"Ġcoord":4950,"Ġprimarily":4951,"Ġhit":4952,"Ġlargely":4953,"ĠLatin":4954,"Ġplatform":4955,"ĠSal":4956,"Ġheight":4957,"eters":4958,"Ġfacts":4959,"gl":4960,"ĠMedicine":4961,"AD":4962,"itors":4963,"rations":4964,"Ġfoss":4965,"Ġexistence":4966,"Ġindicate":4967,"Ġelectrical":4968,"ĠCentral":4969,"Ġfort":4970,"anch":4971,"aker":4972,"rier":4973,"ht":4974,"CO":4975,"Ġtaught":4976,"Ġmorning":4977,"Ġther":4978,"Ġmaster":4979,"Ġdynam":4980,"Ġeast":4981,"ĠThomas":4982,"ĠHol":4983,"ĠMac":4984,"Ġremained":4985,"Ġoccurred":4986,"ĠMart":4987,"Ġjobs":4988,"ras":4989,"Ġextent":4990,"comes":4991,"Most":4992,"arrow":4993,"ĠOld":4994,"ĠFranc":4995,"34":4996,"Ġsector":4997,"ĠSpace":4998,"Ġecosystem":4999,"Ġsubjects":5000,"Ġbrief":5001,"ossible":5002,"Ġ2001":5003,"Ġkinds":5004,"Ġhttps":5005,"Ġflex":5006,"gra":5007,"ixt":5008,"Ġideal":5009,"ĠEnergy":5010,"US":5011,"ĠArmy":5012,"west":5013,"ĠMr":5014,"ĠMet":5015,"Ġbird":5016,"Ġcontribute":5017,"ĠAtl":5018,"inger":5019,"Ġfocused":5020,"espite":5021,"Ġsituations":5022,"ĠDist":5023,"Ġcris":5024,"Ġtreatments":5025,"acters":5026,"Ġfib":5027,"ĠDise":5028,"EL":5029,"ĠCle":5030,"roke":5031,"Ab":5032,"ey":5033,"Ġnations":5034,"Ġstraight":5035,"ĠBay":5036,"ĠMedical":5037,"rian":5038,"ĠCam":5039,"Ġbright":5040,"ĠCommission":5041,"ĠNews":5042,"Ġcenturies":5043,"ague":5044,"Ġcertainly":5045,"inent":5046,"aturally":5047,"oo":5048,"Americ":5049,"tion":5050,"Ġperman":5051,"ulating":5052,"Ġsalt":5053,"'ve":5054,"Ġ1990":5055,"ĠFre":5056,"Ġhyper":5057,"name":5058,"inf":5059,"Ġblog":5060,"Ġconsequences":5061,"Ġtasks":5062,"Ġshowing":5063,"ado":5064,"olute":5065,"Ġliquid":5066,"Ġspecifically":5067,"Ġspend":5068,"Ġoperating":5069,"ĠBen":5070,"Ġmuscles":5071,"Ġcollected":5072,"nel":5073,"Ġidentity":5074,"ĠJud":5075,"Ġraised":5076,"Ġfaster":5077,"what":5078,"Ġadvance":5079,"RI":5080,"Ġiniti":5081,"Ġattacks":5082,"Ġ2002":5083,"ĠFurther":5084,"Ġfelt":5085,"Ġemergency":5086,"99":5087,"Ġmotion":5088,"Ġexcellent":5089,"Ġlov":5090,"ipped":5091,"Ġrecy":5092,"Ġdouble":5093,"Ġdigest":5094,"Ġtro":5095,"rapy":5096,"Ġrevolution":5097,"going":5098,"Ġkeeping":5099,"Ġ*":5100,"Ġquar":5101,"OT":5102,"ĠDirect":5103,"eria":5104,"ĠMass":5105,"Ġsettle":5106,"Ġpros":5107,"yright":5108,"Ġresponsibility":5109,"Ġotherwise":5110,"cript":5111,"Ġpersons":5112,"Ġcareer":5113,"uls":5114,"Ġparticles":5115,"Ġwife":5116,"Ġbill":5117,"Ġproteins":5118,"Ġgoods":5119,"ensus":5120,"Ġmeasured":5121,"ael":5122,"48":5123,"umin":5124,"istan":5125,"Ġshar":5126,"ĠClass":5127,"ĠFlor":5128,"lar":5129,"Ġletters":5130,"ework":5131,"Ġsounds":5132,"Ġimpacts":5133,"that":5134,"osen":5135,"Ġlinks":5136,"rich":5137,"osa":5138,"Ġclim":5139,"Ġmetab":5140,"Ġdetailed":5141,"Ġnerv":5142,"enses":5143,"Ġvast":5144,"Ġagricultural":5145,"Ġnutrients":5146,"Ġdespite":5147,"Ġflowers":5148,"ĠKore":5149,"Ġfif":5150,"ĠTechnology":5151,"ĠSecond":5152,"anges":5153,"Ġsurrounding":5154,"Ġsyn":5155,"Ġrefers":5156,"unk":5157,"AP":5158,"Ġleader":5159,"Ġcomponent":5160,"ND":5161,"ĠQue":5162,"Ġfacilities":5163,"Ġbiological":5164,"Ġmonitoring":5165,"Ġadvice":5166,"Ġkm":5167,"Pl":5168,"col":5169,"ĠDef":5170,"right":5171,"Ġhelpful":5172,"Ġmere":5173,"ĠBook":5174,"itness":5175,"othing":5176,"Ġgrand":5177,"Ġexternal":5178,"Ġtrial":5179,"Ġexplan":5180,"ĠBible":5181,"olars":5182,"iced":5183,"oughly":5184,"No":5185,"igenous":5186,"Ġvoice":5187,"Ġkil":5188,"Ġresist":5189,"Ġsnow":5190,"ĠPacific":5191,"ĠLife":5192,"Ġstone":5193,"point":5194,"Ġpil":5195,"Ġaffects":5196,"Ġroll":5197,"ails":5198,"Ġhaz":5199,"Ġonto":5200,"ĠÃ":5201,"Ġsuggested":5202,"Im":5203,"Ġvent":5204,"BC":5205,"Ġcert":5206,"Ġkn":5207,"Ġperiods":5208,"Ġvital":5209,"ville":5210,"ĠBoth":5211,"Ġthin":5212,"Ġcharacters":5213,"Ġbow":5214,"Ġapparent":5215,"Ġimmig":5216,"ompl":5217,"Ġfamiliar":5218,"ĠOp":5219,"Ġvalid":5220,"Ġexplains":5221,"down":5222,"ĠLearning":5223,"ĠMil":5224,"ION":5225,"Ġgreatest":5226,"Ġsend":5227,"Ġtypical":5228,"Ġoral":5229,"ĠBudd":5230,"MS":5231,"ometimes":5232,"].":5233,"Ġaren":5234,"ĠBur":5235,"win":5236,"field":5237,"Ġhabitat":5238,"Ġslightly":5239,"Ġfundamental":5240,"inant":5241,"Ġsatis":5242,"Ġsche":5243,"aks":5244,"39":5245,"Ġlose":5246,"Ġgirls":5247,"Ġcognitive":5248,"Ġaccurate":5249,"Ġstudied":5250,"Ġplayed":5251,"Ġmaximum":5252,"hi":5253,"ĠFoundation":5254,"Ġinterests":5255,"pat":5256,"Ġwestern":5257,"Ġdivided":5258,"Ġmoist":5259,"band":5260,"Ġincreasingly":5261,"Ġperspective":5262,"Ġcontrolled":5263,"ĠElect":5264,"Ġrail":5265,"37":5266,"Ġtested":5267,"Ġsubstant":5268,"Ġfloor":5269,"oviet":5270,"Ġthoughts":5271,"Ġpregnancy":5272,"Ġnit":5273,"Ġrequest":5274,"ĠInformation":5275,"inding":5276,"Ġfluid":5277,"ĠTwo":5278,"Ġfollows":5279,"ĠStand":5280,"Ġreturned":5281,"Ġsubsequ":5282,"Ġhappened":5283,"Ġofficials":5284,"Ġju":5285,"Ġvehicle":5286,"rastructure":5287,"ache":5288,"utive":5289,"Ġdepends":5290,"resents":5291,"Ġneighbor":5292,"Ġinstrument":5293,"Ġflat":5294,"Ġexplained":5295,"Ġcrops":5296,"Ġtopics":5297,"ĠLake":5298,"Ġliver":5299,"Ġinstruction":5300,"ĠSou":5301,"Ġproport":5302,"rolog":5303,"ĠRobert":5304,"Ġharvest":5305,"Ġchann":5306,"stronom":5307,"ĠWind":5308,"Ġlooked":5309,"itage":5310,"stood":5311,"Ġprices":5312,"roc":5313,"Ġconvent":5314,"Ġstars":5315,"verty":5316,"van":5317,"Ġrural":5318,"Ġfiles":5319,"Ġpotentially":5320,"omy":5321,"ingly":5322,"Ġdisapp":5323,"Ġpoverty":5324,"athy":5325,"Ġdiam":5326,"ificial":5327,"ĠPsych":5328,"gment":5329,"Ġconscious":5330,"burg":5331,"hips":5332,"Ġspl":5333,"Ġconsists":5334,"Ġfruits":5335,"ĠToday":5336,"ĠCatholic":5337,"Ġconcerned":5338,"Ġrecognized":5339,"Ġdepth":5340,"isp":5341,"Ġobtained":5342,"active":5343,"More":5344,"Ġcontaining":5345,"Ġgovernments":5346,"ĠSmith":5347,"Ġpray":5348,"Ġinterview":5349,"ĠTreat":5350,"atever":5351,"Ġgrown":5352,"ĠData":5353,"asure":5354,"Ġsin":5355,"fl":5356,"roid":5357,"Ġtried":5358,"Ġlik":5359,"Ġstem":5360,"Ġcrisis":5361,"Ġphone":5362,"Ġprotected":5363,"Ġprinciple":5364,"ancing":5365,"ĠOut":5366,"ĠCD":5367,"Ġplaying":5368,"44":5369,"umber":5370,"Ġhundreds":5371,"Ġcurriculum":5372,"Ġwalls":5373,"Ġsen":5374,"ĠCarol":5375,"Ġapproaches":5376,"Ġfle":5377,"ĠNor":5378,"Ġclosely":5379,"gal":5380,"ĠJose":5381,"Ġprison":5382,"Ġneut":5383,"Ġrapidly":5384,"celer":5385,"Ġpaint":5386,"li":5387,"la":5388,"Ġpig":5389,"ĠSea":5390,"Ġtrain":5391,"ĠBC":5392,"ING":5393,"ĠMiddle":5394,"Ġcontinuous":5395,"Ġportion":5396,"Ġdut":5397,"Ġappeared":5398,"ĠLand":5399,"Ġimmun":5400,"Ġelev":5401,"ĠUsing":5402,"Ġweap":5403,"ĠCharles":5404,"Ġpolice":5405,"ĠNav":5406,"Ġmedications":5407,"Ġtips":5408,"Ġsyndrome":5409,"ĠWomen":5410,"chers":5411,"65":5412,"Ġdial":5413,"Another":5414,"Ġinvestment":5415,"Ġselected":5416,"ĠMont":5417,"eck":5418,"oster":5419,"Ġlatest":5420,"Ġvisible":5421,"Ġcardi":5422,"ĠHam":5423,"Ġ188":5424,"Ġaccompl":5425,"Ġclaims":5426,"Ġappearance":5427,"iled":5428,"Ġrepresents":5429,"ĠWell":5430,"Ġ2018":5431,"ĠRussia":5432,"32":5433,"ĠRussian":5434,"Ġsatell":5435,"ĠAnother":5436,"ĠHenry":5437,"Ġextract":5438,"Ġresidents":5439,"95":5440,"Ġchief":5441,"Ġdeliver":5442,"....":5443,"Ġargument":5444,"Do":5445,"Ġprocedures":5446,"ÃŃ":5447,"anguage":5448,"Ġspiritual":5449,"TS":5450,"cest":5451,"oral":5452,"ĠMem":5453,"Ġconcentration":5454,"inations":5455,"Ġsuffering":5456,"ellect":5457,"icks":5458,"ĠWild":5459,"abil":5460,"Ġpaid":5461,"uke":5462,"Ġband":5463,"Ġrand":5464,"ĠSoviet":5465,"Ġdirector":5466,"Ġdecrease":5467,"Ġdiscussed":5468,"Ġcrucial":5469,"Ġstock":5470,"Ġtitle":5471,"Ġvaluable":5472,"Ġgun":5473,"Ġalt":5474,"Ġcorrespond":5475,"?âĢĿ":5476,"Ġviews":5477,"Ġreform":5478,"Ġroots":5479,"Ġsed":5480,"Ġgar":5481,"Ġassemb":5482,"ulin":5483,"Ġages":5484,"liam":5485,"zy":5486,"ĠGoogle":5487,"De":5488,"Ġfeelings":5489,"ĠFam":5490,"Ġleaving":5491,"Ġminimum":5492,"ota":5493,"Ġadvoc":5494,"Ġformat":5495,"Ġhunt":5496,"mas":5497,"state":5498,"Ġknew":5499,"Ġstated":5500,"Ġ<":5501,"Ġsides":5502,"Ġmedium":5503,"Ġabuse":5504,"ĠLibrary":5505,"fall":5506,"Ġexpensive":5507,"Ġdistingu":5508,"Ġsick":5509,"Ġfirm":5510,"Ġcontem":5511,"lers":5512,"ascular":5513,"Ġdeaths":5514,"Ġ2020":5515,"BN":5516,"ĠUp":5517,"Ġrandom":5518,"Ġpump":5519,"ĠEngine":5520,"ĠDel":5521,"ĠSuch":5522,"Ġsimpl":5523,"Ġpu":5524,"Ġmoral":5525,"Ġdiscovery":5526,"Ġnaturally":5527,"Ġwire":5528,"Ġinches":5529,"tenance":5530,"ario":5531,"ĠRef":5532,"Ġ45":5533,"Ġdocuments":5534,"Ġbusinesses":5535,"Ġregularly":5536,"Ġsmart":5537,"ĠRights":5538,"Ind":5539,"indu":5540,"Ġfunding":5541,"alian":5542,"Ġfrag":5543,"ĠLouis":5544,"ĠCompany":5545,"Ġrein":5546,"Ġcircumst":5547,"Ġdomestic":5548,"racy":5549,"ĠVirginia":5550,"198":5551,"ĠLike":5552,"ĠEmp":5553,"ĠDisc":5554,"Ġadding":5555,"Ġsoldiers":5556,"stream":5557,"anes":5558,"DF":5559,"Ġmovements":5560,"Ġstret":5561,"Ġdriving":5562,"ĠSte":5563,"ĠStudies":5564,"âĢĻ.":5565,"alse":5566,"Ġjustice":5567,"icit":5568,"Ġlessons":5569,"Ġoutcomes":5570,"ĠInstead":5571,"Ġcouple":5572,"rants":5573,"Ġagriculture":5574,"free":5575,"Ġwel":5576,"ĠTem":5577,"bing":5578,"Ġsets":5579,"Ġ2019":5580,"Ġsan":5581,"Ġ1999":5582,"ĠEnvironmental":5583,"Ġhorse":5584,"Ġinternet":5585,"Ġsecure":5586,"Ġod":5587,"Ġmillions":5588,"ooth":5589,"Ġparam":5590,"Ġrecognize":5591,"Ġcapable":5592,"Ġcorpor":5593,"Ġemployees":5594,"Ġcolors":5595,"Ġdiversity":5596,"Ġadequ":5597,"ĠMake":5598,"Ġwear":5599,"ĠSupp":5600,"Ġrecovery":5601,"Ġexchange":5602,"Ġsubstance":5603,"rem":5604,"bert":5605,"Sc":5606,"31":5607,"Ġshel":5608,"inet":5609,".|":5610,"Ġingred":5611,"omach":5612,"46":5613,"teries":5614,"Ġraise":5615,"Ġinfected":5616,"ĠControl":5617,"ĠSum":5618,"Ġsensitive":5619,"Ġinflammation":5620,"ĠNature":5621,"bi":5622,"Ġentirely":5623,"attle":5624,"ĠHistor":5625,"Other":5626,"76":5627,"Ġsuffer":5628,"ĠPost":5629,"Ġinject":5630,"Ġnarr":5631,"liament":5632,"ada":5633,"cling":5634,"Ġpure":5635,"Ġlabel":5636,"See":5637,"Ġdu":5638,"CS":5639,"Ġbrown":5640,"ĠOx":5641,"Gen":5642,"ola":5643,"Ġtalking":5644,"Ġimpossible":5645,"Ġdistrict":5646,"During":5647,"Ġsecondary":5648,"olf":5649,"Te":5650,"long":5651,"Ġallerg":5652,"Ġtrad":5653,"Ġinfrastructure":5654,"ka":5655,"Ġlibrary":5656,"inn":5657,"Ġparties":5658,"Ġaccepted":5659,"Ġenhance":5660,"Ġpush":5661,"Ġstages":5662,"dden":5663,"ca":5664,"ĠSaf":5665,"olve":5666,"Ġuniverse":5667,"Ġgall":5668,"Ġfacilit":5669,"pping":5670,"ĠFlorida":5671,"Ġabsolute":5672,"Ġincl":5673,"Ġprecise":5674,"ĠDiv":5675,"Ġmit":5676,"Ġclosed":5677,"Ġrecon":5678,"Ġdatabase":5679,"ĠGroup":5680,"HO":5681,"oto":5682,"Ġnetworks":5683,"Ġexperiments":5684,"cules":5685,"esity":5686,"Ġmyth":5687,"Ġindex":5688,"Ġaccomp":5689,"Dr":5690,"exp":5691,"Ġnormally":5692,"idden":5693,"Ġfertil":5694,"Ġnarrow":5695,"Ġprevention":5696,"Ġpictures":5697,"ĠScient":5698,"ĠManagement":5699,"Ġcandid":5700,"Ġbehaviour":5701,"Ġunlike":5702,"Ġflight":5703,"500":5704,"Ġwarming":5705,"Ġprem":5706,"Ġintake":5707,"Ġmoon":5708,"Ġadopted":5709,"ĠOffice":5710,"Ġinterf":5711,"Ġmamm":5712,"Ġformal":5713,"Ġmassive":5714,"uilding":5715,"ĠKen":5716,"reed":5717,"rid":5718,"ypes":5719,"ye":5720,"ĠPC":5721,"comp":5722,"asp":5723,"Ġchapter":5724,"Ġcalls":5725,"Ġmobile":5726,"agues":5727,"war":5728,"ava":5729,"Ġproducing":5730,"Ġdescribes":5731,"ĠAp":5732,"Ġintelligence":5733,"Ġopinion":5734,"spec":5735,"Ġgenerate":5736,"Ġdiscrim":5737,"Ġrecip":5738,"Ġregional":5739,"Ġ31":5740,"Ġble":5741,"Ġwildlife":5742,"Ġopened":5743,"Ġoriginally":5744,"Ġwors":5745,"Ġrub":5746,"Ġfigures":5747,"ĠAlex":5748,"osal":5749,"Ġselection":5750,"Ġintroduction":5751,"Ġtraffic":5752,"Ġwave":5753,"ĠMo":5754,"55":5755,"ĠCommit":5756,"Ġpossess":5757,"Ġapart":5758,"Us":5759,"Ġlisted":5760,"Ġchain":5761,"anged":5762,"Ġlifest":5763,"Ġpref":5764,"Ġpoet":5765,"ston":5766,"Ġsudden":5767,"47":5768,"ĠTer":5769,"ĠBet":5770,"Go":5771,"Ġcoff":5772,"Ġnan":5773,"ĠKnow":5774,"ocratic":5775,"ibilities":5776,"Ġspeaking":5777,"Ġaircraft":5778,"Ġtouch":5779,"agers":5780,"Ġworldwide":5781,"Ġcomputers":5782,"Ġmountain":5783,"Ġhouses":5784,"ĠConstitution":5785,"olester":5786,"ato":5787,"Ġantibiot":5788,"Ġbudget":5789,"ĠFederal":5790,"Ġvillage":5791,"ĠLabor":5792,"Ġtoler":5793,"Ġunderstood":5794,"Ġforests":5795,"Ġdental":5796,"Ġcreative":5797,"normal":5798,"ropical":5799,"Ġbones":5800,"Ġrepeated":5801,"Ġ>":5802,"Ġpossibly":5803,"Ġleadership":5804,"ait":5805,"Ġworse":5806,"Ġsurvival":5807,"ditionally":5808,"Ġdecline":5809,"Ġextensive":5810,"Ġunless":5811,"Ġera":5812,"Ġrevealed":5813,"Ġtun":5814,"organ":5815,"Ġpossibility":5816,"Ġsteel":5817,"Ġlatter":5818,"flow":5819,"Ġamb":5820,"orith":5821,"Ġagencies":5822,"Ġvehicles":5823,"ctic":5824,"abric":5825,"ona":5826,"Ġachieved":5827,"Ġguidelines":5828,"Ġancest":5829,"Ġstick":5830,"Ġprepare":5831,"Ġnurs":5832,"osph":5833,"Ġfill":5834,"rors":5835,"LE":5836,"add":5837,"mic":5838,"Ġmedication":5839,"ĠMicro":5840,"Ġsuc":5841,"Ġmanufacturing":5842,"Ġconsid":5843,"ĠColumb":5844,"ĠTHE":5845,"Ġlandscape":5846,"Ġfell":5847,"Ġaw":5848,"erals":5849,"vironments":5850,"Ġmarriage":5851,"Ġaqu":5852,"Ġpretty":5853,"Ġcomprehensive":5854,"Re":5855,"struct":5856,"Ġabund":5857,"Ġwindow":5858,"My":5859,"Ġstored":5860,"Ġimproving":5861,"Ġagreement":5862,"ĠPers":5863,"Ġprotocol":5864,"Ġplate":5865,"Ġsupplement":5866,"imer":5867,"Ġsuitable":5868,"hemical":5869,"Ġdiverse":5870,"ĠPower":5871,"olesterol":5872,"Ġreaders":5873,"Ġcloud":5874,"Ġleaf":5875,"Ġtow":5876,"apping":5877,"ĠCanadian":5878,"Ġrestrict":5879,"lements":5880,"Ġphr":5881,"gent":5882,"Ġminim":5883,"ĠSl":5884,"ĠBro":5885,"Ġtal":5886,"Ġdust":5887,"Ġremaining":5888,"abits":5889,"Ġacts":5890,"ester":5891,"last":5892,"Ġgather":5893,"acts":5894,"hist":5895,"obe":5896,"Ġroutine":5897,"othe":5898,"ĠReview":5899,"ĠCommon":5900,"Ġmarine":5901,"aser":5902,"Ġlands":5903,"Ġgal":5904,"ĠGood":5905,"Ġassistance":5906,"Ġequival":5907,"rot":5908,"Ġcopy":5909,"Ġ1980":5910,"Ġapprec":5911,"CT":5912,"ums":5913,"Ġmuseum":5914,"ĠCare":5915,"Ġinjuries":5916,"ifies":5917,"throp":5918,"ĠAtt":5919,"Ġfilled":5920,"ĠProv":5921,"Ġtail":5922,"being":5923,"Ġbattery":5924,"Ġsell":5925,"Ġarms":5926,"htm":5927,"Ġchart":5928,"ett":5929,"ĠAbout":5930,"49":5931,"anda":5932,"Ġindeed":5933,"Ġdiscipl":5934,"Ġtroops":5935,"Ġexpressed":5936,"Ġdoctors":5937,"Ġax":5938,"Ġslowly":5939,"born":5940,"orter":5941,"ĠId":5942,"Ġban":5943,"Ġgenerated":5944,"luding":5945,"Ġsurvive":5946,"ĠOF":5947,"Ġadministration":5948,"ini":5949,"ĠUSA":5950,"Ġtiny":5951,"Ġfailed":5952,"asive":5953,"Ġsequence":5954,"Ġcourses":5955,"Ġhappy":5956,"Ġsurf":5957,"Ġstomach":5958,"Ġengage":5959,"Ġcultiv":5960,"Ġstarts":5961,"Ġ1998":5962,"Ġbroken":5963,"Se":5964,"Ġcars":5965,"Ġaccounts":5966,"alysis":5967,"ĠÎ":5968,"Ġdecade":5969,"ĠNations":5970,"Ġscholars":5971,"Ġsports":5972,"Ġintellect":5973,"Ġsod":5974,"ĠProfessor":5975,"Ġanswers":5976,"Ġtwice":5977,"Ġdream":5978,"Ġharmful":5979,"ĠTor":5980,"Ġbeneficial":5981,"Ġdensity":5982,"under":5983,"Ġshell":5984,"ansion":5985,"Ġimper":5986,"ĠAny":5987,"ĠAnn":5988,"zen":5989,"Ġsweet":5990,"Ġextended":5991,"Ġseeing":5992,"Ġunknown":5993,"iform":5994,"77":5995,"icians":5996,"Read":5997,"aria":5998,"Ġtransition":5999,"Ġreject":6000,"Ġafford":6001,"ogue":6002,"Ġwaves":6003,"Ġremote":6004,"ĠPeter":6005,"Ġswitch":6006,"erent":6007,"Ġobtain":6008,"Ġtells":6009,"Ġwww":6010,"Ġacceler":6011,"ĠThose":6012,"ny":6013,"Ġchoices":6014,"Ġderived":6015,"no":6016,"Ġdoor":6017,"Ġcreates":6018,"Ġopening":6019,"mary":6020,"ki":6021,"Ġmaintenance":6022,"Ġsolve":6023,"ĠISBN":6024,"ĠJoseph":6025,"ĠIll":6026,"Ġmolecules":6027,"Ġcatch":6028,"lets":6029,"Ġelectronic":6030,"ribed":6031,"Ġedge":6032,"from":6033,"Ġdecide":6034,"inction":6035,"Ġ500":6036,"ĠExpl":6037,"ĠGold":6038,"Ġproduces":6039,"UR":6040,"Ġerror":6041,"Ġdoubt":6042,"reland":6043,"ĠLeg":6044,"hma":6045,"inity":6046,"Ġhealthcare":6047,"orrow":6048,"Ġopposite":6049,"Ġmur":6050,"ceived":6051,"using":6052,"Ġdepos":6053,"Ġwants":6054,"inder":6055,"Ġconsistent":6056,"Ġintervention":6057,"itt":6058,"Ġcritic":6059,"Cont":6060,"ĠFrank":6061,"Ġ189":6062,"Ġthor":6063,"Ġ300":6064,"Stud":6065,"Ġaer":6066,"Ġpull":6067,"ĠYet":6068,"Ġjourney":6069,"ctive":6070,"Ġstudying":6071,"ĠParis":6072,"Ġplays":6073,"Ġenvironments":6074,"ĠDan":6075,"Ġsuccessfully":6076,"ĠBre":6077,"Ġcircumstances":6078,"ĠRad":6079,"Ġcomposition":6080,"ĠVict":6081,"Ġfossil":6082,"ĠOnly":6083,"Ġchildhood":6084,"eer":6085,"body":6086,"Ġsky":6087,"Ġaf":6088,"Ġlaun":6089,"Ġprincip":6090,"ĠDisease":6091,"EP":6092,"igation":6093,"ĠAustralian":6094,"Ġlocations":6095,"Ġprofessionals":6096,"Ġskill":6097,"ua":6098,"ĠReport":6099,"Ġfoundation":6100,"Can":6101,"ĠThrough":6102,".âĢĻ":6103,"Ġlaboratory":6104,"arant":6105,"inking":6106,"Ġtruly":6107,"Ġbio":6108,"Ġstruggle":6109,"Ġgreatly":6110,"level":6111,"but":6112,"Ġfly":6113,"Ġframework":6114,"ashion":6115,"Ġsignals":6116,"Ġmechanism":6117,"usal":6118,"Ġmarked":6119,"rine":6120,"Ġenable":6121,"Ġcultures":6122,"ĠStreet":6123,"Ġdifficulty":6124,"Ġsharing":6125,"ena":6126,"Ġoutl":6127,"ĠFe":6128,"Ġaudience":6129,"wo":6130,"ioxide":6131,"Ġorganized":6132,"ĠCommittee":6133,"Ġfixed":6134,"Ġratio":6135,"Since":6136,"Ġmanaged":6137,"Ġcalcium":6138,"Ġvessels":6139,"Ġinsects":6140,"Ġtransmission":6141,"Ã¼":6142,"Ġresponses":6143,"Ġdescription":6144,"ivery":6145,"Ġimplementation":6146,"Ġflav":6147,"Ġinstitution":6148,"Ġgrav":6149,"Ġdebate":6150,"Ġpermanent":6151,"Ġindicates":6152,"Ġuns":6153,"inating":6154,"itative":6155,"Ġlots":6156,"tage":6157,"En":6158,"ifications":6159,"ocracy":6160,"Ġ1970":6161,"Ġwish":6162,"ĠRome":6163,"ĠScot":6164,"umes":6165,"Ġdestroyed":6166,"Ġdownload":6167,"Ġphilosophy":6168,"aud":6169,"Ġauthorities":6170,"IL":6171,"itudes":6172,"ĠLong":6173,"Ġwalking":6174,"ĠHall":6175,"Ġalgorith":6176,"Ġreplaced":6177,"Ġyield":6178,"ĠKh":6179,"ront":6180,"Ġcarefully":6181,"Ġattend":6182,"ĠIN":6183,"Ġtraum":6184,"Ġfiber":6185,"ĠClin":6186,"Ġoptim":6187,"Ġbear":6188,"Ġmixed":6189,"Ġcompr":6190,"ĠIreland":6191,"wing":6192,"ĠChic":6193,"Ġultimately":6194,"ĠGlobal":6195,"Ġrepresented":6196,"eper":6197,"ĠNatural":6198,"Ġunp":6199,"Ġcolour":6200,"Ġhydrogen":6201,"Ġacids":6202,"Ġwitness":6203,"Ġconventional":6204,"Ġconsumers":6205,"ĠDesign":6206,"ĠAI":6207,"Ġlimits":6208,"Ġraw":6209,"Ġethnic":6210,"ĠMad":6211,"Ġarrived":6212,"Ġhus":6213,"kes":6214,"stein":6215,"cycl":6216,"Ġcart":6217,"ĠStat":6218,"itan":6219,"zil":6220,"ĠItaly":6221,"Ġnewsp":6222,"Ġagency":6223,"Ġinteraction":6224,"icide":6225,"ĠLab":6226,"American":6227,"Ġmagnetic":6228,"Ġdaughter":6229,"ĠOcean":6230,"ĠCult":6231,"Ġgluc":6232,"Ġdedicated":6233,"ĠStudy":6234,"acing":6235,"gans":6236,"cel":6237,"Ġdin":6238,"Ġboost":6239,"onia":6240,"Ġimmediate":6241,"ribe":6242,"Ġunable":6243,"ĠHaw":6244,"Ġyounger":6245,"Ġsentence":6246,"Ġthousand":6247,"Ġcorn":6248,"hand":6249,"ĠSouthern":6250,"Ġnecessarily":6251,"Ġreserv":6252,"ĠAdminist":6253,"Ġnerve":6254,"ĠCamp":6255,"Ġnine":6256,"Ġshift":6257,"ipping":6258,"Ġsight":6259,"elled":6260,"hop":6261,"ĠOh":6262,"Ġfounded":6263,"Ġconstitution":6264,"tering":6265,"Ġfasc":6266,"ĠPub":6267,"Ġhandle":6268,"bour":6269,"ĠStep":6270,"Ġcolleagues":6271,"ints":6272,"Ġpurchase":6273,"ĠExp":6274,"Ġroof":6275,"aped":6276,"Ġremark":6277,"Ġgone":6278,"then":6279,"atal":6280,"Ġorganisms":6281,"Ġends":6282,"Ġdesire":6283,"âĢĻ,":6284,"Ġfewer":6285,"ĠBank":6286,"Ġcholesterol":6287,"gu":6288,"Bl":6289,"Ġregul":6290,"Ġfeeding":6291,"isters":6292,"Ġlifestyle":6293,"Ġships":6294,"riers":6295,"izer":6296,"Ġ185":6297,"Ġbiggest":6298,"Ġelectron":6299,"ĠCop":6300,"rating":6301,"Ġcloser":6302,"Ġmac":6303,"fish":6304,"Ġpreval":6305,"Ġvoc":6306,"ĠExt":6307,"Ġcircuit":6308,"rus":6309,"Ġcoffee":6310,"Figure":6311,"cher":6312,"word":6313,"Ġacknow":6314,"heast":6315,"Ġexists":6316,"Ġsupplies":6317,"ictionary":6318,"Ġsupporting":6319,"Ġcamera":6320,"Ġwriter":6321,"fortunately":6322,"Ġsupports":6323,"iration":6324,"Ġfighting":6325,"Ġnoise":6326,"ĠSol":6327,"Ġterritory":6328,"abul":6329,"tra":6330,"ĠExper":6331,"sey":6332,"Ġcomparison":6333,"Ġ1997":6334,"ĠWhe":6335,"Ġreader":6336,"Ġaccum":6337,"Ġpersist":6338,"Ġeld":6339,"Ġinhib":6340,"Ġparalle":6341,"Ġcomments":6342,"bridge":6343,"ĠPM":6344,"Ġlisten":6345,"Ġhighlight":6346,"Ġchosen":6347,"Ġeastern":6348,"ĠNorthern":6349,"Ġunderlying":6350,"ĠValley":6351,"Ġdioxide":6352,"ĠAcademy":6353,"Ġfabric":6354,"ita":6355,"irty":6356,"omic":6357,"Ġregulations":6358,"Ġhem":6359,"ĠForest":6360,"ĠMa":6361,"Ġcos":6362,"Ġunus":6363,"rd":6364,"Ġphotograph":6365,"Ġlaunch":6366,"anta":6367,"Ġtwenty":6368,"Ġmarried":6369,"Ġtea":6370,"Ġmild":6371,"Ġhabits":6372,"ĠIP":6373,"ĠRichard":6374,"irds":6375,"ĠRevolution":6376,"ĠScott":6377,"zed":6378,"66":6379,"ocy":6380,"Ġneck":6381,"Ġsucceed":6382,"Â·":6383,"IP":6384,"Ġchrom":6385,"kins":6386,"Ġinner":6387,"ĠCarolina":6388,"âĢĺ":6389,"Ġcommunicate":6390,"azing":6391,"Ġjoin":6392,"Ġoccasion":6393,"Ġstands":6394,"riting":6395,"Ġtransportation":6396,"stract":6397,"Ġmechanisms":6398,"ĠRoyal":6399,"Ġarchitecture":6400,"called":6401,"Ġdent":6402,"Ġbreathing":6403,"Ġcontained":6404,"Ġresolution":6405,"ĠEnd":6406,"Ġtank":6407,"ĠForm":6408,"BS":6409,"ĠVis":6410,"Le":6411,"Ġalle":6412,"Ġoverl":6413,"Ġfract":6414,"Ġmulti":6415,"Ġourselves":6416,"Ġbrand":6417,"earchers":6418,"Ġfalse":6419,"Ġclust":6420,"Ġregist":6421,"DP":6422,"ĠWood":6423,"Ġparticipate":6424,"Ġhypothes":6425,"top":6426,"Ġpron":6427,"Ġevaluation":6428,"rovers":6429,"Ġbread":6430,"Pe":6431,"ML":6432,"Ġpercentage":6433,"Ġemotions":6434,"ĠMag":6435,"ĠSk":6436,"Ġvote":6437,"42":6438,"Ġstanding":6439,"Ġobservations":6440,"ella":6441,"Ġbehaviors":6442,"Ġuniversity":6443,"Ġhousing":6444,"Ġimprovement":6445,"Ġattached":6446,"ĠCancer":6447,"ĠSpain":6448,"ĠFort":6449,"Ġmachines":6450,"ĠGal":6451,"Ġepid":6452,"such":6453,"Ġaccident":6454,"Ġvulnerable":6455,"Ġrecognition":6456,"Ġdrawing":6457,"Ġcontamin":6458,"ih":6459,"Ġvariable":6460,"uts":6461,"Ġconcrete":6462,"ĠEmpire":6463,"Ġrelax":6464,"Ġadministr":6465,"ĠHome":6466,"Ġestimates":6467,"phone":6468,"otion":6469,"Ġrid":6470,"ĠColor":6471,"hav":6472,"ĠGet":6473,"Ġresulted":6474,"ĠSciences":6475,"uter":6476,"Ġinstructions":6477,"comm":6478,"Ġfever":6479,"Ġtall":6480,"Ġhoriz":6481,"Ġneur":6482,"Ġzone":6483,"Ġgrew":6484,"ĠAS":6485,"Ġequivalent":6486,"Ã³":6487,"ĠCa":6488,"utch":6489,"Ġ1996":6490,"Ġcutting":6491,"Ġtaste":6492,"Ġinstruments":6493,"stone":6494,"Ġwhatever":6495,"Ġ1960":6496,"Ġborder":6497,"CD":6498,"Ġgreenhouse":6499,"Ġartificial":6500,"ctor":6501,"ested":6502,"ĠMill":6503,"teen":6504,"ĠAdd":6505,"Ġturns":6506,"Ġpup":6507,"Ġrhy":6508,"ĠRob":6509,"Ġcrow":6510,"Ġcompounds":6511,"Ġwhereas":6512,"roduction":6513,"Ġtrained":6514,"Ġshop":6515,"Ġrising":6516,"Ġfeedback":6517,"icon":6518,"sue":6519,"Ġprogramming":6520,"Ġknows":6521,"Ġwilling":6522,"ĠBoard":6523,"orous":6524,"ĠDet":6525,"ĠAgricult":6526,"Ġsubs":6527,"ditional":6528,"Let":6529,"Ġkit":6530,"Med":6531,"Ġveter":6532,"Ġdemonstrated":6533,"Ġmaps":6534,"iah":6535,"Ġdelay":6536,"ĠPenn":6537,"Ġshot":6538,"Ġmeth":6539,"Ġcats":6540,"struction":6541,"Ġhero":6542,"Ġlayers":6543,"ora":6544,"ediatric":6545,"Ġemployment":6546,"Ġserver":6547,"Ġprev":6548,"ĠEth":6549,"Ġlies":6550,"Ġment":6551,"Ġmice":6552,"ĠPan":6553,"ĠBrown":6554,"Ġjoined":6555,"Ġrefuge":6556,"tic":6557,"Ġfunctional":6558,"Ġdiagnosed":6559,"Ġstroke":6560,"Ġissued":6561,"Ġthy":6562,"Ġsupposed":6563,"iratory":6564,"Ġconfidence":6565,"Ġahead":6566,"Ġtrials":6567,"Ġpowers":6568,"Ġprove":6569,"Ġsmoking":6570,"Ġlegs":6571,"Ġrecept":6572,"Ġentry":6573,"ĠCap":6574,"Ġrelation":6575,"Ġstable":6576,"ĠTime":6577,"Ġindependence":6578,"ĠTimes":6579,"Ġflo":6580,"Ġdemonstrate":6581,"while":6582,"Ġguarant":6583,"Ġgenerations":6584,"Ġrow":6585,"79":6586,"abled":6587,"xts":6588,"ureau":6589,"agon":6590,"Ġmedic":6591,"weight":6592,"Ġobesity":6593,"irt":6594,"Ġcapture":6595,"orses":6596,"ults":6597,"43":6598,"05":6599,"Ġsubstances":6600,"Ġmembr":6601,"Ġconclusion":6602,"Ġfu":6603,"Int":6604,"Ġdebt":6605,"Ġ36":6606,"Ġcm":6607,"Ġdefe":6608,"Ġdistur":6609,"Ġdepartment":6610,"Ġreactions":6611,"Ġobjective":6612,"Ġzero":6613,"uh":6614,"cons":6615,"een":6616,"ritis":6617,"igned":6618,"isk":6619,"Ġfrequent":6620,"Ġnearby":6621,"arn":6622,"Ġexamine":6623,"Ġath":6624,"Ġpresentation":6625,"ĠChicago":6626,"Ġexplo":6627,"01":6628,"Ġastronom":6629,"Ġcompetition":6630,"pet":6631,"andon":6632,"ĠItalian":6633,"Ġinsurance":6634,"Ġmand":6635,"Ġoblig":6636,"aine":6637,"itivity":6638,"ĠNative":6639,"Ã¶":6640,"espread":6641,"ĠIrish":6642,"Ġfunds":6643,"ĠMichael":6644,"Ġru":6645,"oven":6646,"Ġpair":6647,"Ġbot":6648,"icious":6649,"88":6650,"hered":6651,"IR":6652,"Ġconnections":6653,"Ġcustomers":6654,"Ġpsychological":6655,"everal":6656,"asters":6657,"oding":6658,"Ġdelivery":6659,"Ġshut":6660,"Ġprompt":6661,"ployment":6662,"Ġscript":6663,"plant":6664,"Lear":6665,"Ġlect":6666,"ĠGard":6667,"ups":6668,"ĠâĢ¢":6669,"Ġteen":6670,"Ġcrime":6671,"Ġpartner":6672,"ĠPract":6673,"ala":6674,"Ġsole":6675,"Ġmatters":6676,"usiness":6677,"Ġpool":6678,"OC":6679,"ighter":6680,"ether":6681,"Ġsheet":6682,"Ġbeliefs":6683,"anches":6684,"Ġemployed":6685,"occ":6686,"eenth":6687,"Ġ1995":6688,"Ġpra":6689,"inally":6690,"Ġdefine":6691,"41":6692,"esis":6693,"Ġcarb":6694,"Ġmode":6695,"Ġchick":6696,"Ġcounty":6697,"Ġvirtual":6698,"ĠClimate":6699,"Ġphysics":6700,"erior":6701,"ĠFree":6702,"ugh":6703,"how":6704,"Ġhur":6705,"Ġpolitics":6706,"ĠWik":6707,"Of":6708,"Ġinteractions":6709,"aked":6710,"Ġrice":6711,"etime":6712,"IA":6713,"ittle":6714,"ĠEastern":6715,"gov":6716,"Your":6717,"urrent":6718,"Ġspok":6719,"Ġlaunched":6720,"Ġarrange":6721,"ymph":6722,"hesis":6723,"Ġsurve":6724,"Rec":6725,"Ġpositions":6726,"Ġswim":6727,"aph":6728,"Ġpapers":6729,"osion":6730,"yles":6731,"Ġagreed":6732,"Ġexpansion":6733,"Ġmanif":6734,"ĠKeep":6735,"Ġ75":6736,"reek":6737,"itely":6738,"ĠGuide":6739,"Ġparticipation":6740,"Not":6741,"Ġcategories":6742,"ĠHoly":6743,"Ġstimul":6744,"Ġlegislation":6745,"Ġflag":6746,"earing":6747,"Ġinvolving":6748,"azine":6749,"Ġbiod":6750,"Ġoperate":6751,"Ġpoison":6752,"Ġmarkets":6753,"Ġmeal":6754,"ĠSing":6755,"Ġcav":6756,"Ġholid":6757,"itter":6758,"Ġwasn":6759,"ishment":6760,"Ġundert":6761,"LA":6762,"Ġinsulin":6763,"First":6764,"raining":6765,"Ġexplanation":6766,"Ġnone":6767,"Ġtissues":6768,"Ġmatch":6769,"Ġforth":6770,"Ġrivers":6771,"Ġputting":6772,"ĠIII":6773,"scale":6774,"etics":6775,"Ġconsumer":6776,"mes":6777,"ading":6778,"Ġsmoke":6779,"Ġkidney":6780,"Ġhole":6781,"ĠBrazil":6782,"Ġspending":6783,"%)":6784,"ĠWhere":6785,"Ġmicros":6786,"pan":6787,"Over":6788,"eless":6789,"ĠGeorg":6790,"alls":6791,"ĠEarly":6792,"Ġgap":6793,"yth":6794,"Ġmeters":6795,"ĠHave":6796,"Ġnegot":6797,"Ġdoi":6798,"Ġdeclared":6799,"Ġtons":6800,"ĠIndians":6801,"ĠServices":6802,"Ġbridge":6803,"Ġusage":6804,"Ġtexts":6805,"ĠAccess":6806,"Ġapproved":6807,"Qu":6808,"Ġadequate":6809,"cyclop":6810,"Ġlegisl":6811,"nect":6812,"ĠKingdom":6813,"Ġelectro":6814,"ĠLanguage":6815,"Ġestimate":6816,"Ġpainting":6817,"Ġframe":6818,"umps":6819,"Ġreven":6820,"Ġrig":6821,"Ġdrawn":6822,"Ġneither":6823,"Ġsettings":6824,"Ġblow":6825,"Ġ32":6826,"Ġmeasurements":6827,"Ġscene":6828,"Ġdanger":6829,"Ġtrip":6830,"ĠDiff":6831,"ented":6832,"Ġmaintaining":6833,"Ġbutter":6834,"Ġstring":6835,"ĠVictor":6836,"Ġassociation":6837,"rial":6838,"Ġnob":6839,"Ġcards":6840,"Ġsections":6841,"Ġcup":6842,"Ġwidespread":6843,"Ġpassage":6844,"Ġfold":6845,"ushed":6846,"Ġcovers":6847,"Ġ150":6848,"Ġdepart":6849,"Ġaward":6850,"ĠâĨ":6851,"Ġcryst":6852,"Ġended":6853,"Ġinstalled":6854,"Ġcommitted":6855,"ĠProp":6856,"Ġglucose":6857,"ibl":6858,"Ġruns":6859,"Ġindustries":6860,"Ġorient":6861,"Ġdestruction":6862,"Ġdamaged":6863,"Ġbabies":6864,"Ġblocks":6865,"car":6866,"Ġburning":6867,"Ġbreath":6868,"IG":6869,"ĠEss":6870,"Ġstreet":6871,"ĠCreat":6872,"Ġcontrols":6873,"oples":6874,"Ġforget":6875,"Ġconstructed":6876,"Ġholds":6877,"ĠAtlantic":6878,"ourage":6879,"Ġreliable":6880,"dule":6881,"Ġintegrated":6882,"Ġcentre":6883,"Ġreceiving":6884,"ĠMer":6885,"Ġpharm":6886,"Ġviruses":6887,"Ġsomewhat":6888,"Ġske":6889,"Ġenemy":6890,"fit":6891,"Ġfurn":6892,"Ġeveryday":6893,"elesc":6894,"ĠDar":6895,"Ġvac":6896,"irus":6897,"Ġroute":6898,"Ġorgans":6899,"ĠStr":6900,"Ġdivision":6901,"IDS":6902,"Ġentered":6903,"Ġplayers":6904,"Ġongoing":6905,"85":6906,"Ġrank":6907,"Ġhistoric":6908,"Ġcontrovers":6909,"Ġholding":6910,"Ġmm":6911,"Ġmales":6912,"Ġsmooth":6913,"Ġcoastal":6914,"utrition":6915,"Ġindicated":6916,"VID":6917,"example":6918,"Ġcolumn":6919,"Ġearthqu":6920,"orph":6921,"SS":6922,"Ġshif":6923,"71":6924,"Ġbanks":6925,"Ġrelief":6926,"Ġmanip":6927,"osc":6928,"Ġaccessible":6929,"ulty":6930,"Ġintellectual":6931,"Ġboys":6932,"Ġdollars":6933,"htt":6934,"Ġcomposed":6935,"pes":6936,"she":6937,"Ġstrongly":6938,"Ġchallenging":6939,"Ġrepair":6940,"Ġvoltage":6941,"gical":6942,"Ġfer":6943,"Ġmining":6944,"Ġbrings":6945,"Ġpublication":6946,"herent":6947,"Ġfashion":6948,"Ġminerals":6949,"Ġabandon":6950,"Don":6951,"itamin":6952,"Ġmissing":6953,"Ġrecommendations":6954,"Ġartists":6955,"Ġhonor":6956,"eers":6957,"ocation":6958,"rite":6959,"Ġoutbre":6960,"Ġconven":6961,"Ġvictims":6962,"Ġvolcan":6963,"idential":6964,"Ġstre":6965,"Ġmos":6966,"Ġcenters":6967,"Ġannounced":6968,"yal":6969,"Ġbond":6970,"________":6971,"Ġmood":6972,"Ġfacility":6973,"Ġcategory":6974,"Ġelection":6975,"OL":6976,"Ġnest":6977,"ĠAge":6978,"Even":6979,"Ġtight":6980,"Ġboy":6981,"rane":6982,"Ġexercises":6983,"Ġsacr":6984,"igan":6985,"Ġmicrob":6986,"oston":6987,"Ġtrouble":6988,"Ġvs":6989,"Ġhun":6990,"inson":6991,"idity":6992,"Ġfulf":6993,"ano":6994,"Ġkne":6995,"ĠMD":6996,"Ġmeasurement":6997,"ĠSil":6998,"Ġfemales":6999,"Ġpounds":7000,"Ġwait":7001,"Ġreduces":7002,"Ġ65":7003,"Ġseemed":7004,"Ġpregnant":7005,"Ġphoto":7006,"sts":7007,"iral":7008,"Ġintense":7009,"Ġcompare":7010,"Ġevaluate":7011,"Ġille":7012,"Ġasking":7013,"ĠCre":7014,"gers":7015,"hent":7016,"operation":7017,"ĠBab":7018,"ĠViet":7019,"IM":7020,"ĠPop":7021,"Ġworry":7022,"iability":7023,"Once":7024,"Ġrealize":7025,"oir":7026,"ĠYear":7027,"Ġproportion":7028,"Ġparas":7029,"Ġdesigns":7030,"Ġnervous":7031,"Ġsatellite":7032,"Ġwound":7033,"Ġrenewable":7034,"Ġfro":7035,"Ġtheories":7036,"Ġcriteria":7037,"ĠFamily":7038,"ĠResources":7039,"ĠParty":7040,"ĠHill":7041,"apse":7042,"Ġmoisture":7043,"Ġsilver":7044,"Ġtheore":7045,"Ġmerely":7046,"Ġexamination":7047,"ĠAcc":7048,"Ġcollaboration":7049,"acco":7050,"arsh":7051,"Ġtract":7052,"abulary":7053,"Ġplus":7054,"CA":7055,"Ġpreparation":7056,"aded":7057,"Ġblind":7058,"ĠEU":7059,"greg":7060,"Ġearn":7061,"Ġoffering":7062,"ani":7063,"Ġcalories":7064,"making":7065,"Ġconstantly":7066,"ĠAdv":7067,"gs":7068,"health":7069,"Ġrespectively":7070,"ĠDig":7071,"rooms":7072,"RA":7073,"Ġcommission":7074,"rary":7075,"Ġgram":7076,"Ġmaintained":7077,"Ġwithd":7078,"Ġfavorite":7079,"ĠAgency":7080,"Ġmetabol":7081,"ĠBig":7082,"thritis":7083,"%.":7084,"iological":7085,"Ġseeking":7086,"Ġsought":7087,"Ġparallel":7088,"Ġhusband":7089,"Ġturning":7090,"ĠTake":7091,"airy":7092,"Ġengaged":7093,"Ġdistributed":7094,"ĠDistrict":7095,"Ġadvert":7096,"ĠSup":7097,"ĠCy":7098,"Me":7099,"Ġring":7100,"amins":7101,"ĠOxford":7102,"Ġsignificance":7103,"ĠEqu":7104,"ĠRom":7105,"ĠMartin":7106,"Ġoutcome":7107,"Ġabnormal":7108,"Ġaccuracy":7109,"ivered":7110,"Ġtub":7111,"Ġuncertain":7112,"alm":7113,"Because":7114,"Ġmolecular":7115,"Ġagents":7116,"Ġrely":7117,"Ġsigned":7118,"Ġprohib":7119,"Ġrocks":7120,"Ġdys":7121,"asty":7122,"onomy":7123,"Ġinfect":7124,"73":7125,"Ġtube":7126,"heric":7127,"Ġloved":7128,"Ġforg":7129,"Ġspaces":7130,"Ġped":7131,"roat":7132,"ĠTV":7133,"ĠZeal":7134,"net":7135,"ĠTeac":7136,"ĠChristmas":7137,"Ġbath":7138,"Ġbeings":7139,"68":7140,"rey":7141,"Ġroles":7142,"Ġweapons":7143,"Ġintest":7144,"Ġsurfaces":7145,"isdom":7146,"ĠList":7147,"esides":7148,"Ġtransp":7149,"Ġmechanical":7150,"olesc":7151,"ĠSpecial":7152,"Ġopposed":7153,"Ġfarming":7154,"ĠÐ":7155,"Ġbreeding":7156,"Ġthanks":7157,"rency":7158,"Ġscan":7159,"Ġbiology":7160,"Ġinfluenced":7161,"CE":7162,"UT":7163,"Ġstrict":7164,"sis":7165,"Ġarrest":7166,"Ġdischar":7167,"Ġfourth":7168,"Ġvariables":7169,"ailed":7170,"ĠBefore":7171,"Ġarchae":7172,"Ġislands":7173,"ĠPlant":7174,"ĠLib":7175,"Ġcomplicated":7176,"Ġrarely":7177,"ady":7178,"Ġplenty":7179,"ĠHeb":7180,"Ġarts":7181,"Ġ1994":7182,"Ġfacing":7183,"Ġbeauty":7184,"Ġescape":7185,"ĠNaz":7186,"Ġdependent":7187,"ĠEffect":7188,"ĠWord":7189,"Ġinfant":7190,"Ġartist":7191,"Ġmortality":7192,"ommod":7193,"Ġmessages":7194,"Ġpreventing":7195,"Ġfairly":7196,"Ġprincipal":7197,"Ġcaptured":7198,"'m":7199,"Ġjudge":7200,"ĠAdministration":7201,"ĠAP":7202,"Ġdetection":7203,"aska":7204,"Ġcontemporary":7205,"abb":7206,"Ġcircle":7207,"peror":7208,"hyd":7209,"ĠAND":7210,"orders":7211,"Ġserving":7212,"CH":7213,"ĠPolic":7214,"Ġessentially":7215,"Ġproof":7216,"Ġguidance":7217,"ĠSat":7218,"Ġconversation":7219,"rowing":7220,"ĠThough":7221,"Ġcareful":7222,"Ġsubsequent":7223,"Ġacute":7224,"Ġedition":7225,"Ġmathematics":7226,"forcement":7227,"Ġtemple":7228,"Ġattempts":7229,"Ġdefect":7230,"Ġconsiderable":7231,"Or":7232,"estion":7233,"Ġdisaster":7234,"Ġdomain":7235,"Ġcrew":7236,"ĠZealand":7237,"Ġscore":7238,"Ġingredients":7239,"ipedia":7240,"Ġowner":7241,"quit":7242,"iana":7243,"ortion":7244,"Ġinher":7245,"Ġtowns":7246,"oln":7247,"Ġencouraged":7248,"ĠSometimes":7249,"ĠAsian":7250,"Every":7251,"Ġjump":7252,"Ġproceed":7253,"otton":7254,"Ġmoves":7255,"Ġgradually":7256,"Ġbringing":7257,"osh":7258,"Ġcrim":7259,"Ġphenomenon":7260,"Ġcarrying":7261,"Ġangle":7262,"ĠFace":7263,"Ġirrit":7264,"Ġmixt":7265,"Ġanalys":7266,"74":7267,"Ġpeak":7268,"olving":7269,"eren":7270,"Ġclothing":7271,"Ġsession":7272,"Ġdefense":7273,"heimer":7274,"aired":7275,"ĠChange":7276,"ĠOpen":7277,"ĠMel":7278,"Ġdesired":7279,"Ġdiscrimination":7280,"Ġconsidering":7281,"Ġvisitors":7282,"ruption":7283,"Ġimplemented":7284,"Ġrab":7285,"Ġcombat":7286,"Ġdose":7287,"ĠSecret":7288,"Ġproved":7289,"Ġphotos":7290,"Ġstatistics":7291,"Ġitem":7292,"Ġsharp":7293,"Ġofficers":7294,"Ġid":7295,"Ġadvantages":7296,"Ġtheme":7297,"Ġshock":7298,"ĠHy":7299,"bra":7300,"amine":7301,"ventions":7302,"Ġincred":7303,"ĠMoreover":7304,"amination":7305,"eli":7306,"Ġnose":7307,"including":7308,"Ġinn":7309,"ĠRock":7310,"Ġexclus":7311,"Ġproven":7312,"medi":7313,"ĠPlease":7314,"Ġseconds":7315,"ĠPet":7316,"Ġconfirmed":7317,"itals":7318,"Ġgalax":7319,"oom":7320,"ĠPrinc":7321,"Ġpanel":7322,"NS":7323,"Ġlie":7324,"illa":7325,"Ġhorses":7326,"ollowing":7327,"Ġevil":7328,"ĠEp":7329,"Ġformula":7330,"72":7331,"lishing":7332,"Ġinterpre":7333,"va":7334,"Ġabsence":7335,"theless":7336,"aning":7337,"pling":7338,"Ġempt":7339,"Ġinterpretation":7340,"ĠTop":7341,"Ġcorrel":7342,"Ġasthma":7343,"Ġchest":7344,"Ġ1950":7345,"ĠYoung":7346,"Am":7347,"Ġheating":7348,"Ġclaimed":7349,"ĠMuslim":7350,"ĠMS":7351,"Ġstronger":7352,"Today":7353,"Ġimplications":7354,"Ġnewly":7355,"Ġsla":7356,"Ġcopper":7357,"ĠCheck":7358,"eness":7359,"Ġminute":7360,"Ġdelivered":7361,"ĠCommunity":7362,"ĠWho":7363,"ĠAngel":7364,"Ġbranches":7365,"Ġbranch":7366,"Ġinsert":7367,"ĠCentre":7368,"ĠFurthermore":7369,"sm":7370,"Ġexperimental":7371,"Ġeffectiveness":7372,"Ġdrain":7373,"Ġfed":7374,"HD":7375,"Ġaims":7376,"ricts":7377,"ĠColumbia":7378,"Ġpassing":7379,"Ġdealing":7380,"vard":7381,"Ġsales":7382,"Ġpresents":7383,"Ġspectrum":7384,"Ġuniversal":7385,"istical":7386,"produ":7387,"Ġsurprising":7388,"Ġroughly":7389,"outs":7390,"ĠScotland":7391,"rene":7392,"ilation":7393,"agram":7394,"Ġ400":7395,"Ġplanned":7396,"ĠBill":7397,"Ġprinted":7398,"Ġexcessive":7399,"bar":7400,"ĠDirector":7401,"Ġinformed":7402,"Ġdifficulties":7403,"Ġchlor":7404,"Ġreward":7405,"ĠGrand":7406,"ptions":7407,"rous":7408,"Ġwriters":7409,"Ġfalls":7410,"Ġvarieties":7411,"ĠAmong":7412,"Ed":7413,"Ġlaid":7414,"ooking":7415,"ogether":7416,"ĠSwed":7417,"ohyd":7418,"atial":7419,"ĠSecurity":7420,"akistan":7421,"Ġunusual":7422,"adder":7423,"Ġplane":7424,"Ġfocuses":7425,"Ġscreening":7426,"Ġlights":7427,"ĠDen":7428,"Ġequally":7429,"Ġimagine":7430,"Ġslavery":7431,"Ġrespiratory":7432,"Ġtargets":7433,"class":7434,"Ġshapes":7435,"ĠBoston":7436,"ĠJac":7437,"Ġoverw":7438,"Note":7439,"Ġordered":7440,"ĠNon":7441,"Ġfishing":7442,"ĠMoon":7443,"ĠWall":7444,"Ġlake":7445,"ĠPo":7446,"Ġelected":7447,"Ġfinished":7448,"vin":7449,"Ġsoul":7450,"Ġteams":7451,"Ġremoval":7452,"Ġmold":7453,"Ġmodified":7454,"Ġconcerning":7455,"Ġremed":7456,"Ġwine":7457,"ovascular":7458,"Ġov":7459,"Ġcharacterized":7460,"tles":7461,"Ġassigned":7462,"89":7463,"Ġknowing":7464,"Ġneighborhood":7465,"69":7466,"Ġerrors":7467,"action":7468,"Ġcham":7469,"uality":7470,"isco":7471,"ĠFour":7472,"ĠIndust":7473,"Ġradical":7474,"rox":7475,"ĠDou":7476,"ĠMen":7477,"Ġprominent":7478,"aming":7479,"Ġassume":7480,"emia":7481,"Ġgained":7482,"Ġtreating":7483,"Ġtut":7484,"Ġlearners":7485,"Ġhazard":7486,"ĠVer":7487,"Ġscientist":7488,"Ġsubstantial":7489,"ĠResp":7490,"Ġhormone":7491,"Ġexceed":7492,"ima":7493,"haust":7494,"Ġroads":7495,"Ġguard":7496,"Ġfilter":7497,"Ġphosph":7498,"UN":7499,"Ġsuffered":7500,"Ġmineral":7501,"Ġstead":7502,"Ġdecor":7503,"bles":7504,"ĠDespite":7505,"Su":7506,"Ġcompens":7507,"Ġobserve":7508,"Ġpestic":7509,"Ġcomfortable":7510,"Ġusual":7511,"Ġhappening":7512,"Ġouter":7513,"ĠDoes":7514,"ĠWorks":7515,"reated":7516,"ĠOhio":7517,"Ġspin":7518,"incoln":7519,"Ġexception":7520,"ĠNetwork":7521,"Ġkilomet":7522,"Ġexamined":7523,"Ġslaves":7524,"iat":7525,"Ġintent":7526,"Ġracial":7527,"ĠFund":7528,"Ġton":7529,"Ġclar":7530,"Ġhealing":7531,"Ġeditor":7532,"Comm":7533,"Ġinvestigation":7534,"riz":7535,"ounce":7536,"angered":7537,"Ġturb":7538,"Ġbreed":7539,"Ġsatisf":7540,"oids":7541,"Ġstuff":7542,"ograp":7543,"Ġ1992":7544,"Ġdemands":7545,"ontal":7546,"unicip":7547,"Ġflour":7548,"Ġtelevision":7549,"Comp":7550,"Ġconqu":7551,"Ġdefend":7552,"abeth":7553,"vania":7554,"ĠFinally":7555,"ucky":7556,"ĠCast":7557,"requ":7558,"Ġwarning":7559,"Ġcooking":7560,"ultane":7561,"Ġbomb":7562,"rav":7563,"Ġtropical":7564,"Ġcleaning":7565,"ĠCoast":7566,"pd":7567,"Ġinitially":7568,"ansas":7569,"Ġeliminate":7570,"Ġdates":7571,"Ġtrigger":7572,"Ġdeeper":7573,"otype":7574,"oric":7575,"Ġgut":7576,"Ġgrain":7577,"Ġflower":7578,"ostic":7579,"ĠWindows":7580,"Ġfung":7581,"64":7582,"effect":7583,"ĠAdditionally":7584,"just":7585,"Ġphysician":7586,"Ġidentification":7587,"ĠChristians":7588,"Ġearliest":7589,"Ġdecreased":7590,"Ġremind":7591,"Ġevolved":7592,"ĠGr":7593,"Ġimaging":7594,"uten":7595,"Ġaccommod":7596,"Ġstructural":7597,"agraph":7598,"Ġstores":7599,"oga":7600,"Ġnitrogen":7601,"Ġvariation":7602,"mod":7603,"Ġrecover":7604,"Ġorbit":7605,"ĠFigure":7606,"Ġcorner":7607,"Ġisolated":7608,"Ġtraditions":7609,"Ġconsideration":7610,"Ġgro":7611,"rance":7612,"ĠSupreme":7613,"Ġdetected":7614,"Ġbigger":7615,"MP":7616,"Ġliteracy":7617,"Ġcompound":7618,"Ġstatements":7619,"html":7620,"Ġsenior":7621,"Ġserves":7622,"asant":7623,"âĢł":7624,"Ġgrid":7625,"Ġadm":7626,"ĠMinister":7627,"Ġthreats":7628,"ĠLow":7629,"ĠEngineering":7630,"Ġunw":7631,"Ġdiameter":7632,"ustain":7633,"syl":7634,"Ġmaybe":7635,"orted":7636,"Ġpit":7637,"ounter":7638,"ĠVen":7639,"Ġmarks":7640,"Ġsuperior":7641,"Ġcriminal":7642,"Ġconcluded":7643,"Ġprovider":7644,"ersonal":7645,"Ġgranted":7646,"iary":7647,"ĠJohnson":7648,"Ġfaced":7649,"essions":7650,"ĠSuper":7651,"coming":7652,"oured":7653,"Ġstations":7654,"Ġtrends":7655,"Ġinnovation":7656,"igue":7657,"arents":7658,"Ġbiom":7659,"Ġamazing":7660,"Ġadds":7661,"icted":7662,"Ġbrush":7663,"riend":7664,"Ġconference":7665,"ĠThree":7666,"Ġdriven":7667,"Ġholes":7668,"atively":7669,"Ġslave":7670,"rays":7671,"Ġconfig":7672,"Ġcaught":7673,"EE":7674,"semb":7675,"ĠTim":7676,"isted":7677,"etary":7678,"ioxid":7679,"She":7680,"Ġterror":7681,"Ġ48":7682,"Ġhoney":7683,"ishop":7684,"Ġarray":7685,"Ġheavily":7686,"Ġdrought":7687,"ĠSund":7688,"Ġrose":7689,"ĠEr":7690,"print":7691,"?\"":7692,"Ġscar":7693,"Ġanywhere":7694,"Ġsubt":7695,"Ġepis":7696,"ĠJeff":7697,"gence":7698,"ĠMethod":7699,"zheimer":7700,"Ġaccompan":7701,"Ġfest":7702,"Ġunion":7703,"Ġalter":7704,"otal":7705,"Ġplot":7706,"MA":7707,"ĠIran":7708,"ĠLar":7709,"Ġcomplications":7710,"sell":7711,"ĠHebrew":7712,"Per":7713,"Ġenorm":7714,"06":7715,"Ġacres":7716,"Ġvideos":7717,"ĠCOVID":7718,"Ġflows":7719,"chen":7720,"Ġsplit":7721,"ette":7722,"ĠSir":7723,"Ġhosp":7724,"Ġcash":7725,"CP":7726,"mm":7727,"fts":7728,"Ġbrows":7729,"Ġconj":7730,"Ġmeasuring":7731,"Ġcorrectly":7732,"Ġconsume":7733,"Ear":7734,"itual":7735,"ĠNever":7736,"Ġtranslation":7737,"ĠSafety":7738,"Ġdirected":7739,"ĠSar":7740,"Ġlistening":7741,"Ġprinting":7742,"Ġperception":7743,"People":7744,"Ġschedule":7745,"Ġworship":7746,"Ġmountains":7747,"Ġplayer":7748,"Ġindigenous":7749,"Ġasc":7750,"ĠUr":7751,"Ġdisabilities":7752,"Ġsport":7753,"Ã¢":7754,"Ġcort":7755,"Ġwindows":7756,"icy":7757,"ĠSurvey":7758,"ĠSign":7759,"ĠBul":7760,"ĠTre":7761,"Ġdynamic":7762,"ĠOrganization":7763,"Ġperm":7764,"Ġobservation":7765,"opes":7766,"ercury":7767,"ao":7768,"ĠLead":7769,"ĠEst":7770,"Ġmg":7771,"Ġ38":7772,"icing":7773,"Ġantibiotics":7774,"Ġchannel":7775,"Ġpin":7776,"ĠPen":7777,"elfare":7778,"onym":7779,"ENT":7780,"Ġceremon":7781,"usalem":7782,"Ġemphasis":7783,"edu":7784,"Ġfinds":7785,"Ġ1993":7786,"Ġcoverage":7787,"Ġbacterial":7788,"Ġcattle":7789,"ĠNov":7790,"Ġinspired":7791,"night":7792,"Ġpeoples":7793,"ĠLiter":7794,"Ġmusical":7795,"ĠPakistan":7796,"ura":7797,"Ġye":7798,"quar":7799,"ĠMult":7800,"uset":7801,"ographical":7802,"soft":7803,"Ġpreced":7804,"ĠPot":7805,"ĠAuthor":7806,"sylvania":7807,"Ġdisrupt":7808,"forest":7809,"Ġwrites":7810,"Ġreveal":7811,"itarian":7812,"ude":7813,"Ġhence":7814,"ĠIns":7815,"asses":7816,"Ġregulation":7817,"Ġinhabit":7818,"Ġduty":7819,"Ġstability":7820,"Ġoccurring":7821,"Ġobjectives":7822,"ĠJul":7823,"Ġoldest":7824,"ĠSimilar":7825,"Ġampl":7826,"Ġstrengthen":7827,"Ġmine":7828,"mers":7829,"Ġautomatically":7830,"iture":7831,"Ġworst":7832,"ocial":7833,"ĠKorea":7834,"Ġsunlight":7835,"rolled":7836,"Ġpoem":7837,"Ġintensity":7838,"Ġheads":7839,"allow":7840,"Ġsitting":7841,"Ġnice":7842,"ĠDivision":7843,"Ġprocessed":7844,"Col":7845,"usetts":7846,"About":7847,"ogenic":7848,"ĠCell":7849,"ildren":7850,"Ġagent":7851,"achusetts":7852,"def":7853,"Ġtables":7854,"eut":7855,"Ġovercome":7856,"Ġviewed":7857,"Ġwheat":7858,"Ġtaxes":7859,"Ġcontribution":7860,"Ġreaching":7861,"Ġsuscept":7862,"Ġaged":7863,"Ġacquired":7864,"cyclopedia":7865,"izabeth":7866,"Ġ1991":7867,"02":7868,"ĠForce":7869,"erly":7870,"Ġregarded":7871,"Ġdietary":7872,"Ġwheel":7873,"ĠEdward":7874,"icular":7875,"Ġuniform":7876,"Ġvocabulary":7877,"ĠConservation":7878,"Ġtumor":7879,"plete":7880,"App":7881,"59":7882,"Ġcommitment":7883,"Ġgiant":7884,"Ġpolar":7885,"rection":7886,"Ġidentifying":7887,"Ġfunctioning":7888,"09":7889,"ĠStar":7890,"ĠCross":7891,"CR":7892,"Ġcontributed":7893,"adel":7894,"ĠCambridge":7895,"Ġvel":7896,"ĠKar":7897,"Ġgrows":7898,"Ġprotecting":7899,"ĠOper":7900,"Ġstrain":7901,"Ġ)":7902,"ailable":7903,"08":7904,"Ġcalling":7905,"ĠPrevention":7906,"Ġvan":7907,"Ġinterface":7908,"03":7909,"erty":7910,"ĠNeu":7911,"Ġcooling":7912,"Ġaddressed":7913,"Ġ33":7914,"real":7915,"Ġsup":7916,"Pr":7917,"ĠColl":7918,"Ġrelie":7919,"Ġalph":7920,"Ġconserv":7921,"ĠDev":7922,"Ġquarter":7923,"Ġautism":7924,"omer":7925,"ĠLincoln":7926,"ĠProtection":7927,"irth":7928,"ĠTable":7929,"Ġrepresentation":7930,"ieval":7931,"ali":7932,"Ġgases":7933,"ĠHospital":7934,"yer":7935,"Ġmoderate":7936,"Ġdriver":7937,"ĠType":7938,"Ġcounsel":7939,"ogs":7940,"Ġengineers":7941,"Ġexhaust":7942,"Ġdesert":7943,"Ġdecay":7944,"Ġappointed":7945,"athered":7946,"Ġabilities":7947,"century":7948,"Ġ;":7949,"ĠLo":7950,"enger":7951,"Ġathlet":7952,"ĠCurrent":7953,"ĠNote":7954,"ourse":7955,"ĠQueen":7956,"ĠFather":7957,"quir":7958,"igate":7959,"Ġsensitivity":7960,"ĠReading":7961,"eping":7962,"58":7963,"Ġrational":7964,"ĠDO":7965,"ĠJo":7966,"Ġexperiencing":7967,"May":7968,"ĠMah":7969,"ĠLearn":7970,"----":7971,"Ġadverse":7972,"Ġcovering":7973,"Ġregardless":7974,"AA":7975,"ĠSet":7976,"Ġlaser":7977,"Ġfatty":7978,"azon":7979,"Ġles":7980,"Ġstake":7981,"Pre":7982,"Ġextend":7983,"Ġmathematical":7984,"Ġvitamins":7985,"aws":7986,"Ġquiet":7987,"Ġbees":7988,"ĠGeorgia":7989,"Ġauthent":7990,"Ġthermal":7991,"door":7992,"lines":7993,"Ġmeals":7994,"Ġseparated":7995,"HA":7996,"ĠMichigan":7997,"ĠLee":7998,"hea":7999}